{
  "version": "1.0",
  "truncation": null,
  "padding": null,
  "added_tokens": [
    {
      "id": 0,
      "content": "[PAD]",
      "single_word": false,
      "lstrip": false,
      "rstrip": false,
      "normalized": false,
      "special": true
    },
    {
      "id": 1,
      "content": "[UNK]",
      "single_word": false,
      "lstrip": false,
      "rstrip": false,
      "normalized": false,
      "special": true
    },
    {
      "id": 2,
      "content": "[BOS]",
      "single_word": false,
      "lstrip": false,
      "rstrip": false,
      "normalized": false,
      "special": true
    },
    {
      "id": 3,
      "content": "[EOS]",
      "single_word": false,
      "lstrip": false,
      "rstrip": false,
      "normalized": false,
      "special": true
    }
  ],
  "normalizer": null,
  "pre_tokenizer": {
    "type": "Whitespace"
  },
  "post_processor": null,
  "decoder": null,
  "model": {
    "type": "BPE",
    "dropout": null,
    "unk_token": null,
    "continuing_subword_prefix": null,
    "end_of_word_suffix": null,
    "fuse_unk": false,
    "byte_fallback": false,
    "ignore_merges": false,
    "vocab": {
      "[PAD]": 0,
      "[UNK]": 1,
      "[BOS]": 2,
      "[EOS]": 3,
      "!": 4,
      "$": 5,
      "&": 6,
      "'": 7,
      ",": 8,
      "-": 9,
      ".": 10,
      "3": 11,
      ":": 12,
      ";": 13,
      "?": 14,
      "A": 15,
      "B": 16,
      "C": 17,
      "D": 18,
      "E": 19,
      "F": 20,
      "G": 21,
      "H": 22,
      "I": 23,
      "J": 24,
      "K": 25,
      "L": 26,
      "M": 27,
      "N": 28,
      "O": 29,
      "P": 30,
      "Q": 31,
      "R": 32,
      "S": 33,
      "T": 34,
      "U": 35,
      "V": 36,
      "W": 37,
      "X": 38,
      "Y": 39,
      "Z": 40,
      "a": 41,
      "b": 42,
      "c": 43,
      "d": 44,
      "e": 45,
      "f": 46,
      "g": 47,
      "h": 48,
      "i": 49,
      "j": 50,
      "k": 51,
      "l": 52,
      "m": 53,
      "n": 54,
      "o": 55,
      "p": 56,
      "q": 57,
      "r": 58,
      "s": 59,
      "t": 60,
      "u": 61,
      "v": 62,
      "w": 63,
      "x": 64,
      "y": 65,
      "z": 66,
      "th": 67,
      "ou": 68,
      "er": 69,
      "in": 70,
      "an": 71,
      "the": 72,
      "or": 73,
      "is": 74,
      "en": 75,
      "ar": 76,
      "at": 77,
      "on": 78,
      "st": 79,
      "ll": 80,
      "me": 81,
      "to": 82,
      "and": 83,
      "he": 84,
      "you": 85,
      "es": 86,
      "no": 87,
      "se": 88,
      "ha": 89,
      "re": 90,
      "of": 91,
      "ve": 92,
      "it": 93,
      "ing": 94,
      "be": 95,
      "le": 96,
      "wi": 97,
      "my": 98,
      "hi": 99,
      "ow": 100,
      "ce": 101,
      "for": 102,
      "ay": 103,
      "as": 104,
      "ch": 105,
      "nd": 106,
      "ere": 107,
      "ld": 108,
      "ir": 109,
      "ed": 110,
      "ut": 111,
      "ro": 112,
      "not": 113,
      "li": 114,
      "de": 115,
      "we": 116,
      "hat": 117,
      "that": 118,
      "gh": 119,
      "And": 120,
      "ke": 121,
      "oo": 122,
      "our": 123,
      "with": 124,
      "ome": 125,
      "ent": 126,
      "his": 127,
      "ri": 128,
      "your": 129,
      "thou": 130,
      "ther": 131,
      "ad": 132,
      "al": 133,
      "et": 134,
      "all": 135,
      "ght": 136,
      "EN": 137,
      "ur": 138,
      "us": 139,
      "have": 140,
      "him": 141,
      "IN": 142,
      "ly": 143,
      "so": 144,
      "ra": 145,
      "this": 146,
      "IO": 147,
      "ord": 148,
      "do": 149,
      "un": 150,
      "ho": 151,
      "ma": 152,
      "ess": 153,
      "pe": 154,
      "fe": 155,
      "AR": 156,
      "ould": 157,
      "are": 158,
      "lo": 159,
      "here": 160,
      "ood": 161,
      "id": 162,
      "thy": 163,
      "ver": 164,
      "fa": 165,
      "ck": 166,
      "one": 167,
      "man": 168,
      "ti": 169,
      "The": 170,
      "sha": 171,
      "now": 172,
      "am": 173,
      "will": 174,
      "ne": 175,
      "ge": 176,
      "ain": 177,
      "but": 178,
      "su": 179,
      "ard": 180,
      "her": 181,
      "US": 182,
      "ter": 183,
      "con": 184,
      "pr": 185,
      "Th": 186,
      "To": 187,
      "end": 188,
      "by": 189,
      "thee": 190,
      "ue": 191,
      "om": 192,
      "la": 193,
      "shall": 194,
      "art": 195,
      "mor": 196,
      "up": 197,
      "UC": 198,
      "sh": 199,
      "come": 200,
      "po": 201,
      "ING": 202,
      "rom": 203,
      "own": 204,
      "AN": 205,
      "ust": 206,
      "That": 207,
      "ta": 208,
      "tr": 209,
      "what": 210,
      "ER": 211,
      "OR": 212,
      "ous": 213,
      "mo": 214,
      "sel": 215,
      "ET": 216,
      "te": 217,
      "ES": 218,
      "go": 219,
      "good": 220,
      "if": 221,
      "ill": 222,
      "But": 223,
      "ine": 224,
      "ath": 225,
      "hen": 226,
      "ble": 227,
      "ight": 228,
      "lord": 229,
      "ion": 230,
      "hich": 231,
      "king": 232,
      "What": 233,
      "was": 234,
      "bo": 235,
      "il": 236,
      "ant": 237,
      "KING": 238,
      "ven": 239,
      "she": 240,
      "ca": 241,
      "ul": 242,
      "from": 243,
      "bl": 244,
      "ong": 245,
      "more": 246,
      "For": 247,
      "well": 248,
      "sa": 249,
      "them": 250,
      "IC": 251,
      "ak": 252,
      "sir": 253,
      "self": 254,
      "ind": 255,
      "would": 256,
      "there": 257,
      "wor": 258,
      "love": 259,
      "can": 260,
      "know": 261,
      "per": 262,
      "ct": 263,
      "out": 264,
      "ive": 265,
      "EL": 266,
      "ate": 267,
      "com": 268,
      "say": 269,
      "then": 270,
      "see": 271,
      "IUS": 272,
      "let": 273,
      "ARD": 274,
      "their": 275,
      "My": 276,
      "di": 277,
      "than": 278,
      "ci": 279,
      "ry": 280,
      "--": 281,
      "they": 282,
      "fore": 283,
      "ence": 284,
      "ag": 285,
      "ep": 286,
      "ear": 287,
      "like": 288,
      "spe": 289,
      "Go": 290,
      "ers": 291,
      "hy": 292,
      "may": 293,
      "LO": 294,
      "bro": 295,
      "um": 296,
      "were": 297,
      "way": 298,
      "As": 299,
      "pro": 300,
      "ast": 301,
      "We": 302,
      "ves": 303,
      "ish": 304,
      "ink": 305,
      "KE": 306,
      "time": 307,
      "hath": 308,
      "II": 309,
      "qu": 310,
      "No": 311,
      "ure": 312,
      "irst": 313,
      "He": 314,
      "make": 315,
      "ol": 316,
      "ple": 317,
      "You": 318,
      "who": 319,
      "thing": 320,
      "row": 321,
      "must": 322,
      "gra": 323,
      "ound": 324,
      "ith": 325,
      "ap": 326,
      "ave": 327,
      "some": 328,
      "ook": 329,
      "should": 330,
      "OL": 331,
      "father": 332,
      "fi": 333,
      "LA": 334,
      "RO": 335,
      "TIO": 336,
      "use": 337,
      "ity": 338,
      "too": 339,
      "had": 340,
      "upon": 341,
      "son": 342,
      "did": 343,
      "CA": 344,
      "day": 345,
      "ig": 346,
      "ance": 347,
      "ward": 348,
      "ON": 349,
      "dis": 350,
      "how": 351,
      "wo": 352,
      "which": 353,
      "death": 354,
      "oun": 355,
      "reat": 356,
      "IS": 357,
      "word": 358,
      "fri": 359,
      "If": 360,
      "sp": 361,
      "when": 362,
      "est": 363,
      "men": 364,
      "speak": 365,
      "entle": 366,
      "In": 367,
      "heart": 368,
      "ICH": 369,
      "again": 370,
      "RICH": 371,
      "ful": 372,
      "vi": 373,
      "DU": 374,
      "DUKE": 375,
      "hand": 376,
      "yet": 377,
      "old": 378,
      "mar": 379,
      "el": 380,
      "Thou": 381,
      "UL": 382,
      "mine": 383,
      "very": 384,
      "think": 385,
      "RICHARD": 386,
      "ENTIO": 387,
      "take": 388,
      "Which": 389,
      "pl": 390,
      "si": 391,
      "swe": 392,
      "ac": 393,
      "God": 394,
      "hear": 395,
      "Be": 396,
      "With": 397,
      "ince": 398,
      "INC": 399,
      "str": 400,
      "ign": 401,
      "Why": 402,
      "give": 403,
      "Of": 404,
      "na": 405,
      "such": 406,
      "First": 407,
      "land": 408,
      "ang": 409,
      "AB": 410,
      "ness": 411,
      "uch": 412,
      "most": 413,
      "blood": 414,
      "des": 415,
      "ex": 416,
      "ster": 417,
      "brother": 418,
      "br": 419,
      "these": 420,
      "hea": 421,
      "tell": 422,
      "tis": 423,
      "any": 424,
      "ba": 425,
      "ey": 426,
      "UE": 427,
      "ise": 428,
      "onour": 429,
      "bre": 430,
      "other": 431,
      "im": 432,
      "where": 433,
      "How": 434,
      "que": 435,
      "llow": 436,
      "Come": 437,
      "less": 438,
      "ty": 439,
      "arm": 440,
      "life": 441,
      "This": 442,
      "TER": 443,
      "coun": 444,
      "look": 445,
      "new": 446,
      "So": 447,
      "ort": 448,
      "UCH": 449,
      "Who": 450,
      "friend": 451,
      "gentle": 452,
      "oul": 453,
      "GLO": 454,
      "ught": 455,
      "vo": 456,
      "UCES": 457,
      "GLOUCES": 458,
      "GLOUCESTER": 459,
      "chi": 460,
      "ars": 461,
      "af": 462,
      "mis": 463,
      "ving": 464,
      "hast": 465,
      "ady": 466,
      "Lord": 467,
      "ab": 468,
      "urse": 469,
      "ts": 470,
      "Rome": 471,
      "RY": 472,
      "night": 473,
      "rown": 474,
      "off": 475,
      "fair": 476,
      "made": 477,
      "age": 478,
      "LE": 479,
      "QUE": 480,
      "VINC": 481,
      "QUEEN": 482,
      "VINCENTIO": 483,
      "honour": 484,
      "OF": 485,
      "Se": 486,
      "much": 487,
      "ans": 488,
      "tion": 489,
      "ond": 490,
      "Is": 491,
      "Where": 492,
      "lie": 493,
      "urn": 494,
      "UM": 495,
      "LAN": 496,
      "stand": 497,
      "Mar": 498,
      "pre": 499,
      "HEN": 500,
      "cond": 501,
      "Now": 502,
      "che": 503,
      "name": 504,
      "tle": 505,
      "em": 506,
      "ef": 507,
      "HENRY": 508,
      "ng": 509,
      "ber": 510,
      "part": 511,
      "never": 512,
      "fear": 513,
      "io": 514,
      "Your": 515,
      "ces": 516,
      "ies": 517,
      "lt": 518,
      "live": 519,
      "ower": 520,
      "jo": 521,
      "ser": 522,
      "uke": 523,
      "It": 524,
      "call": 525,
      "great": 526,
      "ass": 527,
      "YOR": 528,
      "fo": 529,
      "head": 530,
      "YORK": 531,
      "ree": 532,
      "ment": 533,
      "und": 534,
      "Or": 535,
      "ation": 536,
      "INIUS": 537,
      "ever": 538,
      "pray": 539,
      "cannot": 540,
      "red": 541,
      "true": 542,
      "heaven": 543,
      "PET": 544,
      "ase": 545,
      "noble": 546,
      "fl": 547,
      "pa": 548,
      "been": 549,
      "sweet": 550,
      "fort": 551,
      "An": 552,
      "DW": 553,
      "EDW": 554,
      "co": 555,
      "EDWARD": 556,
      "GR": 557,
      "done": 558,
      "mer": 559,
      "bet": 560,
      ",--": 561,
      "TH": 562,
      "doth": 563,
      "iz": 564,
      "nor": 565,
      "ough": 566,
      "LUC": 567,
      "MEN": 568,
      "pt": 569,
      "res": 570,
      "Ay": 571,
      "da": 572,
      "pp": 573,
      "ull": 574,
      "war": 575,
      "ouse": 576,
      "There": 577,
      "ie": 578,
      "comm": 579,
      "gr": 580,
      "int": 581,
      "When": 582,
      "rest": 583,
      "Ed": 584,
      "wr": 585,
      "bear": 586,
      "ME": 587,
      "UT": 588,
      "grace": 589,
      "soul": 590,
      "before": 591,
      "ROME": 592,
      "Edward": 593,
      "ROMEO": 594,
      "By": 595,
      "sc": 596,
      "ss": 597,
      "ENIUS": 598,
      "both": 599,
      "world": 600,
      "MENENIUS": 601,
      "Ri": 602,
      "queen": 603,
      "ace": 604,
      "Here": 605,
      "Let": 606,
      "Then": 607,
      "comes": 608,
      "ughter": 609,
      "RUCH": 610,
      "down": 611,
      "pri": 612,
      "orn": 613,
      "dead": 614,
      "PETRUCH": 615,
      "PETRUCHIO": 616,
      "OM": 617,
      "ings": 618,
      "TES": 619,
      "long": 620,
      "ved": 621,
      "ite": 622,
      "pres": 623,
      "ake": 624,
      "ice": 625,
      "being": 626,
      "wick": 627,
      "Than": 628,
      "ru": 629,
      "leave": 630,
      "myself": 631,
      "hold": 632,
      "mother": 633,
      "Cl": 634,
      "HA": 635,
      "MAR": 636,
      "ore": 637,
      "set": 638,
      "cour": 639,
      "house": 640,
      "put": 641,
      "thus": 642,
      "cause": 643,
      "COR": 644,
      "IZ": 645,
      "op": 646,
      "ret": 647,
      "IOLAN": 648,
      "CORIOLAN": 649,
      "CORIOLANUS": 650,
      "Nor": 651,
      "tri": 652,
      "wife": 653,
      "Second": 654,
      "der": 655,
      "uck": 656,
      "whi": 657,
      "beg": 658,
      "eyes": 659,
      "deed": 660,
      "thought": 661,
      "BA": 662,
      "cl": 663,
      "Rich": 664,
      "dy": 665,
      "child": 666,
      "INA": 667,
      "poor": 668,
      "Do": 669,
      "She": 670,
      "itiz": 671,
      "die": 672,
      "itizen": 673,
      "foo": 674,
      "tra": 675,
      "led": 676,
      "away": 677,
      "IV": 678,
      "right": 679,
      "friends": 680,
      "ds": 681,
      "III": 682,
      "Sir": 683,
      "might": 684,
      "crown": 685,
      "ks": 686,
      "pla": 687,
      "atch": 688,
      "atter": 689,
      "stay": 690,
      "light": 691,
      "bid": 692,
      "ten": 693,
      "many": 694,
      "War": 695,
      "ft": 696,
      "ins": 697,
      "Warwick": 698,
      "ach": 699,
      "gri": 700,
      "lit": 701,
      "His": 702,
      "tre": 703,
      "Tis": 704,
      "ps": 705,
      "ison": 706,
      "pose": 707,
      "ELLA": 708,
      "cious": 709,
      "ISAB": 710,
      "ISABELLA": 711,
      "mi": 712,
      "ange": 713,
      "nothing": 714,
      "Romeo": 715,
      "daughter": 716,
      "RAN": 717,
      "bra": 718,
      "gone": 719,
      "kind": 720,
      "tal": 721,
      "tong": 722,
      "face": 723,
      "Well": 724,
      "mad": 725,
      "better": 726,
      "IET": 727,
      "JUL": 728,
      "kes": 729,
      "ose": 730,
      "par": 731,
      "ford": 732,
      "till": 733,
      "ONTES": 734,
      "LEONTES": 735,
      "JULIET": 736,
      "Nay": 737,
      "VI": 738,
      "gu": 739,
      "eng": 740,
      "though": 741,
      "prince": 742,
      "words": 743,
      "IL": 744,
      "ted": 745,
      "DY": 746,
      "able": 747,
      "ors": 748,
      "une": 749,
      "ears": 750,
      "LADY": 751,
      "CE": 752,
      "ST": 753,
      "VOL": 754,
      "wer": 755,
      "ENCE": 756,
      "show": 757,
      "BR": 758,
      "TA": 759,
      "ban": 760,
      "ither": 761,
      "tend": 762,
      "news": 763,
      "CL": 764,
      "Citizen": 765,
      "Ser": 766,
      "ic": 767,
      "sent": 768,
      "best": 769,
      "urder": 770,
      "against": 771,
      "Pro": 772,
      "those": 773,
      "joy": 774,
      "SIC": 775,
      "band": 776,
      "hour": 777,
      "sle": 778,
      "hence": 779,
      "lords": 780,
      "little": 781,
      "SICINIUS": 782,
      "far": 783,
      "tent": 784,
      "Sha": 785,
      "cy": 786,
      "ction": 787,
      "ardon": 788,
      "Un": 789,
      "pur": 790,
      "keep": 791,
      "tain": 792,
      "two": 793,
      "still": 794,
      "hel": 795,
      "char": 796,
      "dear": 797,
      "law": 798,
      "GRE": 799,
      "den": 800,
      "power": 801,
      "mean": 802,
      "forth": 803,
      "roy": 804,
      "himself": 805,
      "Not": 806,
      "full": 807,
      "Thy": 808,
      "back": 809,
      "LUCIO": 810,
      "its": 811,
      "unto": 812,
      "sub": 813,
      "Richard": 814,
      "Have": 815,
      "ech": 816,
      "peace": 817,
      "therefore": 818,
      "Will": 819,
      "bes": 820,
      "first": 821,
      "ren": 822,
      "iness": 823,
      "else": 824,
      "tongue": 825,
      "Yor": 826,
      "could": 827,
      "duke": 828,
      "high": 829,
      "ason": 830,
      "ried": 831,
      "hope": 832,
      "cut": 833,
      "hus": 834,
      "ought": 835,
      "ark": 836,
      "need": 837,
      "conf": 838,
      "find": 839,
      "lady": 840,
      "nat": 841,
      "thine": 842,
      "young": 843,
      "ETH": 844,
      "ELIZ": 845,
      "earth": 846,
      "ABETH": 847,
      "under": 848,
      "York": 849,
      "ELIZABETH": 850,
      "Good": 851,
      "cha": 852,
      "dre": 853,
      "thr": 854,
      "came": 855,
      "IAN": 856,
      "get": 857,
      "home": 858,
      "je": 859,
      "just": 860,
      "mind": 861,
      "ople": 862,
      "ran": 863,
      "master": 864,
      "Hen": 865,
      "Yet": 866,
      "once": 867,
      "people": 868,
      "husband": 869,
      "Henry": 870,
      "IA": 871,
      "pass": 872,
      "arewell": 873,
      "seem": 874,
      "place": 875,
      "PER": 876,
      "lay": 877,
      "sor": 878,
      "happ": 879,
      "qui": 880,
      "after": 881,
      "All": 882,
      "WAR": 883,
      "WIC": 884,
      "cle": 885,
      "fall": 886,
      "ste": 887,
      "Shall": 888,
      "WARWIC": 889,
      "WARWICK": 890,
      "vant": 891,
      "why": 892,
      "ister": 893,
      "bed": 894,
      "wel": 895,
      "fellow": 896,
      "follow": 897,
      "Nurse": 898,
      "last": 899,
      "none": 900,
      "They": 901,
      "please": 902,
      "HAM": 903,
      "PUL": 904,
      "dr": 905,
      "gi": 906,
      "hor": 907,
      "pardon": 908,
      "rep": 909,
      "hither": 910,
      "morrow": 911,
      "tru": 912,
      "said": 913,
      "CAPUL": 914,
      "CAPULET": 915,
      "bu": 916,
      "dou": 917,
      "every": 918,
      "gl": 919,
      "oud": 920,
      "hands": 921,
      "bring": 922,
      "MIO": 923,
      "gue": 924,
      "kill": 925,
      "pat": 926,
      "ousin": 927,
      "boy": 928,
      "woman": 929,
      "shi": 930,
      "shame": 931,
      "try": 932,
      "BUC": 933,
      "cent": 934,
      "mber": 935,
      "heard": 936,
      "tem": 937,
      "KINGHAM": 938,
      "UTUS": 939,
      "BRUTUS": 940,
      "BUCKINGHAM": 941,
      "BOL": 942,
      "BRO": 943,
      "From": 944,
      "TRAN": 945,
      "bus": 946,
      "clo": 947,
      "dra": 948,
      "ff": 949,
      "ius": 950,
      "jest": 951,
      "ates": 952,
      "INGBRO": 953,
      "ESS": 954,
      "LAU": 955,
      "BOLINGBRO": 956,
      "TRANIO": 957,
      "BOLINGBROKE": 958,
      "MIL": 959,
      "car": 960,
      "sand": 961,
      "uty": 962,
      "tears": 963,
      "whose": 964,
      "vost": 965,
      "present": 966,
      "Our": 967,
      "TIS": 968,
      "bri": 969,
      "ken": 970,
      "vy": 971,
      "maid": 972,
      "comp": 973,
      "royal": 974,
      "cer": 975,
      "cur": 976,
      "cess": 977,
      "sen": 978,
      "since": 979,
      "wit": 980,
      "state": 981,
      "lack": 982,
      "wrong": 983,
      "GAR": 984,
      "King": 985,
      "NE": 986,
      "fal": 987,
      "gar": 988,
      "meet": 989,
      "MARGAR": 990,
      "sorrow": 991,
      "MARGARET": 992,
      "ATH": 993,
      "gain": 994,
      "sun": 995,
      "prison": 996,
      "eye": 997,
      "On": 998,
      "vir": 999,
      "whom": 1000,
      "CAL": 1001,
      "while": 1002,
      "help": 1003,
      "Bo": 1004,
      "GEL": 1005,
      "HOR": 1006,
      "gen": 1007,
      "les": 1008,
      "ning": 1009,
      "pi": 1010,
      "ting": 1011,
      "vere": 1012,
      "xt": 1013,
      "reme": 1014,
      "ition": 1015,
      "thousand": 1016,
      "ANGEL": 1017,
      "tress": 1018,
      "ORD": 1019,
      "selves": 1020,
      "gracious": 1021,
      "about": 1022,
      "answer": 1023,
      "Clar": 1024,
      "ANGELO": 1025,
      "CU": 1026,
      "Eng": 1027,
      "gre": 1028,
      "vil": 1029,
      "iss": 1030,
      "lies": 1031,
      "weep": 1032,
      "ARINA": 1033,
      "fool": 1034,
      "Clarence": 1035,
      "KATH": 1036,
      "mon": 1037,
      "wn": 1038,
      "ceive": 1039,
      "cius": 1040,
      "KATHARINA": 1041,
      "St": 1042,
      "over": 1043,
      "into": 1044,
      "vice": 1045,
      "gentleman": 1046,
      "Marcius": 1047,
      "cousin": 1048,
      "ged": 1049,
      "pet": 1050,
      "stri": 1051,
      "asure": 1052,
      "body": 1053,
      "Up": 1054,
      "turn": 1055,
      "ory": 1056,
      "sed": 1057,
      "ready": 1058,
      "form": 1059,
      "hate": 1060,
      "makes": 1061,
      "ESCAL": 1062,
      "spir": 1063,
      "grief": 1064,
      "ESCALUS": 1065,
      "Her": 1066,
      "Pr": 1067,
      "bt": 1068,
      "eld": 1069,
      "ud": 1070,
      "content": 1071,
      "anger": 1072,
      "ject": 1073,
      "Hath": 1074,
      "dost": 1075,
      "broke": 1076,
      "prove": 1077,
      "fortune": 1078,
      "AU": 1079,
      "DUCH": 1080,
      "Duke": 1081,
      "cra": 1082,
      "dow": 1083,
      "sl": 1084,
      "vill": 1085,
      "ery": 1086,
      "ary": 1087,
      "wilt": 1088,
      "DUCHESS": 1089,
      "pher": 1090,
      "rant": 1091,
      "itor": 1092,
      "unt": 1093,
      "pos": 1094,
      "ROS": 1095,
      "play": 1096,
      "Ange": 1097,
      "sleep": 1098,
      "kne": 1099,
      "sound": 1100,
      "anca": 1101,
      "faul": 1102,
      "thank": 1103,
      "times": 1104,
      "swear": 1105,
      "arms": 1106,
      "urderer": 1107,
      "Angelo": 1108,
      "eech": 1109,
      "ost": 1110,
      "wa": 1111,
      "indeed": 1112,
      "another": 1113,
      "ised": 1114,
      "grave": 1115,
      "CAMIL": 1116,
      "acc": 1117,
      "false": 1118,
      "CAMILLO": 1119,
      "Even": 1120,
      "Would": 1121,
      "bal": 1122,
      "even": 1123,
      "matter": 1124,
      "has": 1125,
      "comfort": 1126,
      "talk": 1127,
      "Provost": 1128,
      "happy": 1129,
      "pati": 1130,
      "Ty": 1131,
      "TEN": 1132,
      "fight": 1133,
      "med": 1134,
      "reason": 1135,
      "aint": 1136,
      "sure": 1137,
      "HORTEN": 1138,
      "vereign": 1139,
      "HORTENS": 1140,
      "FR": 1141,
      "IAR": 1142,
      "cor": 1143,
      "vent": 1144,
      "ouch": 1145,
      "only": 1146,
      "stra": 1147,
      "offi": 1148,
      "sovereign": 1149,
      "country": 1150,
      "banish": 1151,
      "Upon": 1152,
      "HORTENSIO": 1153,
      "FRIAR": 1154,
      ",'": 1155,
      "Are": 1156,
      "PTIS": 1157,
      "Thi": 1158,
      "care": 1159,
      "min": 1160,
      "send": 1161,
      "va": 1162,
      "wish": 1163,
      "years": 1164,
      "rather": 1165,
      "lieve": 1166,
      "BAPTIS": 1167,
      "truth": 1168,
      "virt": 1169,
      "BAPTISTA": 1170,
      "AUT": 1171,
      "CUS": 1172,
      "COM": 1173,
      "More": 1174,
      "YCUS": 1175,
      "bit": 1176,
      "ire": 1177,
      "sla": 1178,
      "reven": 1179,
      "onest": 1180,
      "got": 1181,
      "OLYCUS": 1182,
      "business": 1183,
      "AUTOLYCUS": 1184,
      "COMINIUS": 1185,
      ".'": 1186,
      "At": 1187,
      "EY": 1188,
      "hang": 1189,
      "ious": 1190,
      "rd": 1191,
      "spo": 1192,
      "wom": 1193,
      "want": 1194,
      "ene": 1195,
      "ARENCE": 1196,
      "shalt": 1197,
      "deser": 1198,
      "CLARENCE": 1199,
      "Third": 1200,
      "wind": 1201,
      "ye": 1202,
      "arn": 1203,
      "sea": 1204,
      "ury": 1205,
      "breath": 1206,
      "ield": 1207,
      "command": 1208,
      "dream": 1209,
      "pherd": 1210,
      "BEN": 1211,
      "Gentle": 1212,
      "NOR": 1213,
      "Sh": 1214,
      "Take": 1215,
      "prom": 1216,
      "three": 1217,
      "holy": 1218,
      "fect": 1219,
      "lau": 1220,
      "common": 1221,
      "Clown": 1222,
      "VOLIO": 1223,
      "BENVOLIO": 1224,
      "MER": 1225,
      "PA": 1226,
      "PROS": 1227,
      "Te": 1228,
      "igh": 1229,
      "pity": 1230,
      "tw": 1231,
      "enough": 1232,
      "sold": 1233,
      "UMIO": 1234,
      "GRUMIO": 1235,
      "PERO": 1236,
      "welcome": 1237,
      "horse": 1238,
      "doubt": 1239,
      "PROSPERO": 1240,
      "Kate": 1241,
      "Murderer": 1242,
      "air": 1243,
      "hum": 1244,
      "ator": 1245,
      "read": 1246,
      "bea": 1247,
      "lives": 1248,
      "pect": 1249,
      "CUTIO": 1250,
      "villain": 1251,
      "MERCUTIO": 1252,
      "Ju": 1253,
      "Li": 1254,
      "Were": 1255,
      "born": 1256,
      "free": 1257,
      "kiss": 1258,
      "late": 1259,
      "anta": 1260,
      "ask": 1261,
      "within": 1262,
      "gods": 1263,
      "worn": 1264,
      "LUCENTIO": 1265,
      "madam": 1266,
      "Servant": 1267,
      "nature": 1268,
      "Al": 1269,
      "POM": 1270,
      "cre": 1271,
      "city": 1272,
      "sister": 1273,
      "force": 1274,
      "ours": 1275,
      "things": 1276,
      "quest": 1277,
      "mistress": 1278,
      "LAND": 1279,
      "POMP": 1280,
      "Give": 1281,
      "Ro": 1282,
      "Was": 1283,
      "foul": 1284,
      "oath": 1285,
      "wound": 1286,
      "yield": 1287,
      "means": 1288,
      "ents": 1289,
      "enter": 1290,
      "proud": 1291,
      "saw": 1292,
      "fire": 1293,
      "ULINA": 1294,
      "subject": 1295,
      "beseech": 1296,
      "PAULINA": 1297,
      "Con": 1298,
      "Say": 1299,
      "ms": 1300,
      "seen": 1301,
      "rel": 1302,
      "oft": 1303,
      "deli": 1304,
      "yours": 1305,
      "faith": 1306,
      "gether": 1307,
      "appe": 1308,
      "onder": 1309,
      "GREMIO": 1310,
      "gainst": 1311,
      "POMPEY": 1312,
      "IX": 1313,
      "Look": 1314,
      "NIA": 1315,
      "POL": 1316,
      "cla": 1317,
      "gro": 1318,
      "honest": 1319,
      "ier": 1320,
      "pain": 1321,
      "sm": 1322,
      "win": 1323,
      "dem": 1324,
      "yourself": 1325,
      "ENES": 1326,
      "vers": 1327,
      "ANT": 1328,
      "trust": 1329,
      "bles": 1330,
      "plain": 1331,
      "bloody": 1332,
      "looks": 1333,
      "UMNIA": 1334,
      "court": 1335,
      "VOLUMNIA": 1336,
      "gener": 1337,
      "England": 1338,
      "Tybal": 1339,
      "IXENES": 1340,
      "POLIXENES": 1341,
      "BER": 1342,
      "GON": 1343,
      "Some": 1344,
      "ior": 1345,
      "vis": 1346,
      "beat": 1347,
      "uncle": 1348,
      "INGS": 1349,
      "break": 1350,
      "vingman": 1351,
      "haste": 1352,
      "HAST": 1353,
      "traitor": 1354,
      "enger": 1355,
      "Servingman": 1356,
      "ship": 1357,
      "centio": 1358,
      "Tybalt": 1359,
      "HASTINGS": 1360,
      "Can": 1361,
      "Did": 1362,
      "Hast": 1363,
      "May": 1364,
      "RENCE": 1365,
      "bat": 1366,
      "sin": 1367,
      "sit": 1368,
      "together": 1369,
      "hal": 1370,
      "change": 1371,
      "unes": 1372,
      "majest": 1373,
      "point": 1374,
      "person": 1375,
      "days": 1376,
      "thinks": 1377,
      "children": 1378,
      "tender": 1379,
      "LAURENCE": 1380,
      "Ah": 1381,
      "BY": 1382,
      "Pet": 1383,
      "danger": 1384,
      "ga": 1385,
      "lam": 1386,
      "sight": 1387,
      "sword": 1388,
      "wis": 1389,
      "wat": 1390,
      "told": 1391,
      "left": 1392,
      "ows": 1393,
      "wear": 1394,
      "adv": 1395,
      "cks": 1396,
      "woe": 1397,
      "mercy": 1398,
      "warrant": 1399,
      "Therefore": 1400,
      "foot": 1401,
      "Juli": 1402,
      "majesty": 1403,
      "FF": 1404,
      "IFF": 1405,
      "farewell": 1406,
      "ling": 1407,
      "ze": 1408,
      "ones": 1409,
      "ute": 1410,
      "lif": 1411,
      "dest": 1412,
      "save": 1413,
      "UMBER": 1414,
      "THUMBER": 1415,
      "CLIFF": 1416,
      "report": 1417,
      "NORTHUMBER": 1418,
      "NORTHUMBERLAND": 1419,
      "ID": 1420,
      "Lu": 1421,
      "Mon": 1422,
      "cold": 1423,
      "rance": 1424,
      "sing": 1425,
      "sad": 1426,
      "ush": 1427,
      "does": 1428,
      "gold": 1429,
      "worthy": 1430,
      "known": 1431,
      "marry": 1432,
      "Though": 1433,
      "ches": 1434,
      "return": 1435,
      "justice": 1436,
      "draw": 1437,
      "Tell": 1438,
      "half": 1439,
      "Cor": 1440,
      "Com": 1441,
      "grow": 1442,
      "hard": 1443,
      "ner": 1444,
      "nurse": 1445,
      "run": 1446,
      "ist": 1447,
      "believe": 1448,
      "without": 1449,
      "soon": 1450,
      "sue": 1451,
      "ters": 1452,
      "ANNE": 1453,
      "heavy": 1454,
      "purpose": 1455,
      "through": 1456,
      "Clif": 1457,
      "Had": 1458,
      "Le": 1459,
      "PR": 1460,
      "Sign": 1461,
      "Whi": 1462,
      "athe": 1463,
      "fly": 1464,
      "ily": 1465,
      "sil": 1466,
      "heir": 1467,
      "lost": 1468,
      "pluck": 1469,
      "INCE": 1470,
      "strange": 1471,
      "Juliet": 1472,
      "PRINCE": 1473,
      "Bol": 1474,
      "Gre": 1475,
      "cry": 1476,
      "curse": 1477,
      "fit": 1478,
      "found": 1479,
      "obe": 1480,
      "pen": 1481,
      "past": 1482,
      "ingbroke": 1483,
      "bel": 1484,
      "ceed": 1485,
      "enty": 1486,
      "loss": 1487,
      "thyself": 1488,
      "near": 1489,
      "cons": 1490,
      "says": 1491,
      "liege": 1492,
      "charge": 1493,
      "spirit": 1494,
      "Clifford": 1495,
      "Signior": 1496,
      "Bolingbroke": 1497,
      "Away": 1498,
      "Cam": 1499,
      "Farewell": 1500,
      "Me": 1501,
      "One": 1502,
      "Re": 1503,
      "fet": 1504,
      "ide": 1505,
      "sworn": 1506,
      "tit": 1507,
      "tro": 1508,
      "wall": 1509,
      "outh": 1510,
      "hed": 1511,
      "ham": 1512,
      "dom": 1513,
      "strong": 1514,
      "Whose": 1515,
      "pair": 1516,
      "ground": 1517,
      "Should": 1518,
      "ALO": 1519,
      "Ca": 1520,
      "gs": 1521,
      "ices": 1522,
      "woo": 1523,
      "wise": 1524,
      "ina": 1525,
      "instr": 1526,
      "deep": 1527,
      "devil": 1528,
      "entreat": 1529,
      "fast": 1530,
      "bold": 1531,
      "aster": 1532,
      "used": 1533,
      "friar": 1534,
      "married": 1535,
      "service": 1536,
      "ength": 1537,
      "Pray": 1538,
      "claim": 1539,
      "Monta": 1540,
      "France": 1541,
      "Gl": 1542,
      "Sen": 1543,
      "ather": 1544,
      "dare": 1545,
      "ench": 1546,
      "toward": 1547,
      "def": 1548,
      "ides": 1549,
      "sup": 1550,
      "quar": 1551,
      "thoughts": 1552,
      "quick": 1553,
      "remember": 1554,
      "slain": 1555,
      "fault": 1556,
      "straight": 1557,
      "Like": 1558,
      "FL": 1559,
      "FID": 1560,
      "Jo": 1561,
      "Mess": 1562,
      "cr": 1563,
      "cal": 1564,
      "ecut": 1565,
      "fol": 1566,
      "ob": 1567,
      "ph": 1568,
      "touch": 1569,
      "ats": 1570,
      "learn": 1571,
      "choo": 1572,
      "alone": 1573,
      "lose": 1574,
      "These": 1575,
      "suit": 1576,
      "press": 1577,
      "ends": 1578,
      "ORIZ": 1579,
      "same": 1580,
      "worth": 1581,
      "loved": 1582,
      "mark": 1583,
      "course": 1584,
      "open": 1585,
      "AUFID": 1586,
      "enemy": 1587,
      "beauty": 1588,
      "general": 1589,
      "FLORIZ": 1590,
      "Messenger": 1591,
      "AUFIDIUS": 1592,
      "FLORIZEL": 1593,
      "Clau": 1594,
      "SE": 1595,
      "act": 1596,
      "bir": 1597,
      "bour": 1598,
      "cro": 1599,
      "fur": 1600,
      "ied": 1601,
      "widow": 1602,
      "ION": 1603,
      "prof": 1604,
      "dio": 1605,
      "side": 1606,
      "execut": 1607,
      "brought": 1608,
      "See": 1609,
      "grant": 1610,
      "hours": 1611,
      "revenge": 1612,
      "twenty": 1613,
      "Claudio": 1614,
      "!'": 1615,
      "Ha": 1616,
      "Mad": 1617,
      "bow": 1618,
      "duty": 1619,
      "jud": 1620,
      "ses": 1621,
      "youth": 1622,
      "rew": 1623,
      "itself": 1624,
      "rich": 1625,
      "som": 1626,
      "feel": 1627,
      "consu": 1628,
      "ERS": 1629,
      "move": 1630,
      "mock": 1631,
      "work": 1632,
      "canst": 1633,
      "knows": 1634,
      "speed": 1635,
      "umber": 1636,
      "confess": 1637,
      "Gentleman": 1638,
      "Senator": 1639,
      "Madam": 1640,
      "Against": 1641,
      "CIUS": 1642,
      "Cap": 1643,
      "De": 1644,
      "Master": 1645,
      "bs": 1646,
      "bound": 1647,
      "dam": 1648,
      "ped": 1649,
      "ua": 1650,
      "val": 1651,
      "ouce": 1652,
      "lead": 1653,
      "cho": 1654,
      "riage": 1655,
      "order": 1656,
      "illo": 1657,
      "ils": 1658,
      "sake": 1659,
      "pleasure": 1660,
      "field": 1661,
      "desire": 1662,
      "counter": 1663,
      "stands": 1664,
      "ched": 1665,
      "serve": 1666,
      "resol": 1667,
      "MARCIUS": 1668,
      "BAST": 1669,
      "Shepherd": 1670,
      "company": 1671,
      "women": 1672,
      "Montague": 1673,
      "Glouce": 1674,
      "SEBAST": 1675,
      "SEBASTIAN": 1676,
      "MON": 1677,
      "OW": 1678,
      "burn": 1679,
      "dish": 1680,
      "either": 1681,
      "ges": 1682,
      "harm": 1683,
      "mus": 1684,
      "murder": 1685,
      "met": 1686,
      "hes": 1687,
      "hell": 1688,
      "ingham": 1689,
      "behold": 1690,
      "chance": 1691,
      "fection": 1692,
      "Thus": 1693,
      "hearts": 1694,
      "counsel": 1695,
      "fearful": 1696,
      "Camillo": 1697,
      "Buck": 1698,
      "BION": 1699,
      "DEL": 1700,
      "Till": 1701,
      "Vol": 1702,
      "au": 1703,
      "dro": 1704,
      "each": 1705,
      "fer": 1706,
      "ici": 1707,
      "sat": 1708,
      "sur": 1709,
      "vour": 1710,
      "wret": 1711,
      "bell": 1712,
      "hot": 1713,
      "loving": 1714,
      "suc": 1715,
      "short": 1716,
      "tale": 1717,
      "test": 1718,
      "marriage": 1719,
      "strike": 1720,
      "Hastings": 1721,
      "Gloucester": 1722,
      "Buckingham": 1723,
      "BIONDEL": 1724,
      "BIONDELLO": 1725,
      "Au": 1726,
      "Ch": 1727,
      "cri": 1728,
      "du": 1729,
      "fid": 1730,
      "mit": 1731,
      "pie": 1732,
      "sign": 1733,
      "won": 1734,
      "wonder": 1735,
      "attend": 1736,
      "sto": 1737,
      "stu": 1738,
      "ash": 1739,
      "ween": 1740,
      "withal": 1741,
      "rah": 1742,
      "cast": 1743,
      "safe": 1744,
      "something": 1745,
      "sick": 1746,
      "voices": 1747,
      "miss": 1748,
      "pret": 1749,
      "Norfol": 1750,
      "guil": 1751,
      "highness": 1752,
      "given": 1753,
      "patience": 1754,
      "deliver": 1755,
      "Vols": 1756,
      "Norfolk": 1757,
      "AUM": 1758,
      "HER": 1759,
      "OP": 1760,
      "cred": 1761,
      "kn": 1762,
      "knew": 1763,
      "ls": 1764,
      "pit": 1765,
      "pra": 1766,
      "ring": 1767,
      "wast": 1768,
      "watch": 1769,
      "ined": 1770,
      "wixt": 1771,
      "alth": 1772,
      "ally": 1773,
      "loves": 1774,
      "suff": 1775,
      "ERLE": 1776,
      "coming": 1777,
      "Wel": 1778,
      "took": 1779,
      "didst": 1780,
      "ONIO": 1781,
      "strength": 1782,
      "gentlemen": 1783,
      "heavens": 1784,
      "flatter": 1785,
      "pale": 1786,
      "posed": 1787,
      "Roman": 1788,
      "ANTONIO": 1789,
      "Lucentio": 1790,
      "AUMERLE": 1791,
      "Bi": 1792,
      "Lanca": 1793,
      "Po": 1794,
      "ZALO": 1795,
      "aw": 1796,
      "bar": 1797,
      "ger": 1798,
      "hood": 1799,
      "lad": 1800,
      "ris": 1801,
      "thri": 1802,
      "enem": 1803,
      "stir": 1804,
      "become": 1805,
      "cept": 1806,
      "lips": 1807,
      "mortal": 1808,
      "post": 1809,
      "Marry": 1810,
      "brave": 1811,
      "tempt": 1812,
      "GONZALO": 1813,
      "Lancaster": 1814,
      "enemies": 1815,
      "Lo": 1816,
      "Lady": 1817,
      "Most": 1818,
      "Pom": 1819,
      "SA": 1820,
      "Ye": 1821,
      "abo": 1822,
      "bly": 1823,
      "book": 1824,
      "eper": 1825,
      "gates": 1826,
      "wed": 1827,
      "ished": 1828,
      "ons": 1829,
      "held": 1830,
      "ced": 1831,
      "hop": 1832,
      "next": 1833,
      "poss": 1834,
      "seek": 1835,
      "thanks": 1836,
      "cient": 1837,
      "prop": 1838,
      "breathe": 1839,
      "cover": 1840,
      "souls": 1841,
      "certain": 1842,
      "ceived": 1843,
      "water": 1844,
      "title": 1845,
      "suffer": 1846,
      "Bianca": 1847,
      "Bes": 1848,
      "CLAU": 1849,
      "DIO": 1850,
      "Pl": 1851,
      "Tran": 1852,
      "brow": 1853,
      "cure": 1854,
      "four": 1855,
      "gave": 1856,
      "mouth": 1857,
      "wh": 1858,
      "often": 1859,
      "rage": 1860,
      "main": 1861,
      "consent": 1862,
      "poison": 1863,
      "bosom": 1864,
      "themselves": 1865,
      "breast": 1866,
      "chee": 1867,
      "cheer": 1868,
      "join": 1869,
      "merry": 1870,
      "grie": 1871,
      "MIONE": 1872,
      "Alas": 1873,
      "Petru": 1874,
      "CLIFFORD": 1875,
      "HERMIONE": 1876,
      "CLAUDIO": 1877,
      "Call": 1878,
      "DA": 1879,
      "IRAN": 1880,
      "JO": 1881,
      "LORD": 1882,
      "Make": 1883,
      "MIRAN": 1884,
      "Per": 1885,
      "Since": 1886,
      "black": 1887,
      "bunes": 1888,
      "ding": 1889,
      "dden": 1890,
      "iers": 1891,
      "kno": 1892,
      "tin": 1893,
      "tor": 1894,
      "twas": 1895,
      "twere": 1896,
      "wd": 1897,
      "throw": 1898,
      "vel": 1899,
      "oward": 1900,
      "forget": 1901,
      "ered": 1902,
      "eds": 1903,
      "weak": 1904,
      "along": 1905,
      "ended": 1906,
      "worse": 1907,
      "div": 1908,
      "Being": 1909,
      "chio": 1910,
      "foe": 1911,
      "virtu": 1912,
      "virtue": 1913,
      "appear": 1914,
      "further": 1915,
      "Aufid": 1916,
      "Tranio": 1917,
      "Petruchio": 1918,
      "MIRANDA": 1919,
      "Aufidius": 1920,
      "HN": 1921,
      "Spe": 1922,
      "SON": 1923,
      "ade": 1924,
      "bad": 1925,
      "bur": 1926,
      "fir": 1927,
      "lst": 1928,
      "pare": 1929,
      "sk": 1930,
      "spr": 1931,
      "issue": 1932,
      "request": 1933,
      "liant": 1934,
      "liber": 1935,
      "already": 1936,
      "usur": 1937,
      "morning": 1938,
      "kings": 1939,
      "fles": 1940,
      "writ": 1941,
      "Hereford": 1942,
      "begin": 1943,
      "office": 1944,
      "battle": 1945,
      "dangerous": 1946,
      "satis": 1947,
      "JOHN": 1948,
      "Tower": 1949,
      "Yes": 1950,
      "aunt": 1951,
      "creat": 1952,
      "frown": 1953,
      "hind": 1954,
      "iol": 1955,
      "mond": 1956,
      "pay": 1957,
      "pal": 1958,
      "plo": 1959,
      "inter": 1960,
      "anus": 1961,
      "orge": 1962,
      "arry": 1963,
      "hip": 1964,
      "feast": 1965,
      "neither": 1966,
      "trou": 1967,
      "goes": 1968,
      "case": 1969,
      "bless": 1970,
      "thence": 1971,
      "dire": 1972,
      "ways": 1973,
      "sons": 1974,
      "Before": 1975,
      "servant": 1976,
      "between": 1977,
      "Richmond": 1978,
      "mile": 1979,
      "patient": 1980,
      "soldiers": 1981,
      "wounds": 1982,
      "Coriol": 1983,
      "quarrel": 1984,
      "Welcome": 1985,
      "possess": 1986,
      "Coriolanus": 1987,
      "AS": 1988,
      "Ar": 1989,
      "Must": 1990,
      "NT": 1991,
      "Pe": 1992,
      "Such": 1993,
      "bla": 1994,
      "cc": 1995,
      "fra": 1996,
      "fres": 1997,
      "mas": 1998,
      "od": 1999,
      "pite": 2000,
      "rup": 2001,
      "rough": 2002,
      "whe": 2003,
      "mes": 2004,
      "town": 2005,
      "having": 2006,
      "owers": 2007,
      "cell": 2008,
      "alk": 2009,
      "unk": 2010,
      "sum": 2011,
      "dies": 2012,
      "speech": 2013,
      "CATES": 2014,
      "vict": 2015,
      "sigh": 2016,
      "sible": 2017,
      "Because": 2018,
      "base": 2019,
      "voice": 2020,
      "offer": 2021,
      "Margar": 2022,
      "presence": 2023,
      "Unless": 2024,
      "dread": 2025,
      "bride": 2026,
      "brief": 2027,
      "spoke": 2028,
      "consul": 2029,
      "Speak": 2030,
      "CATESBY": 2031,
      "Margaret": 2032,
      "Bap": 2033,
      "Ke": 2034,
      "Lond": 2035,
      "Saint": 2036,
      "col": 2037,
      "dark": 2038,
      "fill": 2039,
      "hur": 2040,
      "rum": 2041,
      "ub": 2042,
      "vow": 2043,
      "wars": 2044,
      "arl": 2045,
      "aris": 2046,
      "ona": 2047,
      "llo": 2048,
      "forward": 2049,
      "lip": 2050,
      "Their": 2051,
      "vile": 2052,
      "action": 2053,
      "Whom": 2054,
      "heads": 2055,
      "scar": 2056,
      "deeds": 2057,
      "mighty": 2058,
      "GREY": 2059,
      "deny": 2060,
      "natur": 2061,
      "chamber": 2062,
      "throne": 2063,
      "seems": 2064,
      "close": 2065,
      "Both": 2066,
      "promise": 2067,
      "visit": 2068,
      "Baptis": 2069,
      "London": 2070,
      "BIAN": 2071,
      "Ere": 2072,
      "Ge": 2073,
      "Isa": 2074,
      "Lest": 2075,
      "Mer": 2076,
      "Mis": 2077,
      "Paris": 2078,
      "RIV": 2079,
      "Tr": 2080,
      "bury": 2081,
      "eth": 2082,
      "ging": 2083,
      "har": 2084,
      "ima": 2085,
      "mb": 2086,
      "swi": 2087,
      "sal": 2088,
      "soft": 2089,
      "ancient": 2090,
      "stain": 2091,
      "reg": 2092,
      "chang": 2093,
      "urch": 2094,
      "sol": 2095,
      "mast": 2096,
      "ided": 2097,
      "vern": 2098,
      "sudden": 2099,
      "moon": 2100,
      "ions": 2101,
      "wash": 2102,
      "worship": 2103,
      "umpet": 2104,
      "umph": 2105,
      "viol": 2106,
      "ments": 2107,
      "prayers": 2108,
      "respect": 2109,
      "BAL": 2110,
      "clou": 2111,
      "trem": 2112,
      "princely": 2113,
      "BRA": 2114,
      "fully": 2115,
      "buy": 2116,
      "bitter": 2117,
      "Baptista": 2118,
      "BIANCA": 2119,
      "George": 2120,
      "RIVERS": 2121,
      "BOW": 2122,
      "GAU": 2123,
      "Pa": 2124,
      "Tho": 2125,
      "ack": 2126,
      "coward": 2127,
      "ew": 2128,
      "eat": 2129,
      "eas": 2130,
      "gall": 2131,
      "ian": 2132,
      "uct": 2133,
      "seat": 2134,
      "rever": 2135,
      "hide": 2136,
      "favour": 2137,
      "oney": 2138,
      "til": 2139,
      "prin": 2140,
      "ELBOW": 2141,
      "ured": 2142,
      "pleas": 2143,
      "count": 2144,
      "orten": 2145,
      "scorn": 2146,
      "North": 2147,
      "triumph": 2148,
      "lawful": 2149,
      "presently": 2150,
      "witness": 2151,
      "Stand": 2152,
      "valiant": 2153,
      "slave": 2154,
      "antage": 2155,
      "lament": 2156,
      "fetch": 2157,
      "cross": 2158,
      "music": 2159,
      "success": 2160,
      "flesh": 2161,
      "GAUNT": 2162,
      "GUE": 2163,
      "Hold": 2164,
      "Hark": 2165,
      "Horten": 2166,
      "Ox": 2167,
      "TY": 2168,
      "aven": 2169,
      "boo": 2170,
      "ease": 2171,
      "fond": 2172,
      "ile": 2173,
      "ife": 2174,
      "ick": 2175,
      "kins": 2176,
      "nay": 2177,
      "occ": 2178,
      "port": 2179,
      "patch": 2180,
      "sper": 2181,
      "stant": 2182,
      "least": 2183,
      "almost": 2184,
      "willing": 2185,
      "gest": 2186,
      "moved": 2187,
      "appro": 2188,
      "sio": 2189,
      "prithee": 2190,
      "tribunes": 2191,
      "TAGUE": 2192,
      "quiet": 2193,
      "faults": 2194,
      "demn": 2195,
      "MONTAGUE": 2196,
      "Hortensio": 2197,
      "Kath": 2198,
      "aid": 2199,
      "bor": 2200,
      "cen": 2201,
      "dle": 2202,
      "gent": 2203,
      "ked": 2204,
      "lar": 2205,
      "low": 2206,
      "mid": 2207,
      "match": 2208,
      "tune": 2209,
      "warm": 2210,
      "thither": 2211,
      "arina": 2212,
      "stor": 2213,
      "hemi": 2214,
      "beast": 2215,
      "ley": 2216,
      "cher": 2217,
      "depart": 2218,
      "ooth": 2219,
      "mali": 2220,
      "pey": 2221,
      "feit": 2222,
      "tic": 2223,
      "god": 2224,
      "kingdom": 2225,
      "aked": 2226,
      "died": 2227,
      "cience": 2228,
      "fie": 2229,
      "fied": 2230,
      "bawd": 2231,
      "Doth": 2232,
      "brace": 2233,
      "Bohemi": 2234,
      "Stay": 2235,
      "slaughter": 2236,
      "subjects": 2237,
      "small": 2238,
      "defend": 2239,
      "execution": 2240,
      "umberland": 2241,
      "pretty": 2242,
      "Pompey": 2243,
      "Yea": 2244,
      "Peace": 2245,
      "Northumberland": 2246,
      "Oxford": 2247,
      "Katharina": 2248,
      "DI": 2249,
      "Ex": 2250,
      "GIL": 2251,
      "IEL": 2252,
      "RGIL": 2253,
      "Swe": 2254,
      "awhile": 2255,
      "sland": 2256,
      "vol": 2257,
      "year": 2258,
      "ines": 2259,
      "inno": 2260,
      "lect": 2261,
      "wild": 2262,
      "living": 2263,
      "rid": 2264,
      "trumpet": 2265,
      "ERD": 2266,
      "tear": 2267,
      "govern": 2268,
      "goodly": 2269,
      "perate": 2270,
      "proceed": 2271,
      "hadst": 2272,
      "whence": 2273,
      "hearing": 2274,
      "offence": 2275,
      "ledge": 2276,
      "mild": 2277,
      "VIRGIL": 2278,
      "guard": 2279,
      "wert": 2280,
      "PERDI": 2281,
      "drink": 2282,
      "glad": 2283,
      "greet": 2284,
      "soldier": 2285,
      "obedi": 2286,
      "quickly": 2287,
      "birth": 2288,
      "dishonour": 2289,
      "piece": 2290,
      "knock": 2291,
      "virtuous": 2292,
      "fresh": 2293,
      "Paul": 2294,
      "Bohemia": 2295,
      "Sweet": 2296,
      "VIRGILIA": 2297,
      "PERDITA": 2298,
      "LY": 2299,
      "SLY": 2300,
      "cli": 2301,
      "cord": 2302,
      "corn": 2303,
      "fled": 2304,
      "gn": 2305,
      "gir": 2306,
      "hun": 2307,
      "lish": 2308,
      "mir": 2309,
      "mio": 2310,
      "ny": 2311,
      "ror": 2312,
      "sort": 2313,
      "ues": 2314,
      "zed": 2315,
      "thor": 2316,
      "isure": 2317,
      "stood": 2318,
      "measure": 2319,
      "reck": 2320,
      "leisure": 2321,
      "church": 2322,
      "lic": 2323,
      "ket": 2324,
      "oop": 2325,
      "doing": 2326,
      "ties": 2327,
      "neck": 2328,
      "contin": 2329,
      "ustom": 2330,
      "bling": 2331,
      "blows": 2332,
      "akes": 2333,
      "worst": 2334,
      "perform": 2335,
      "astard": 2336,
      "lands": 2337,
      "angry": 2338,
      "affection": 2339,
      "greater": 2340,
      "MARIAN": 2341,
      "treason": 2342,
      "kindness": 2343,
      "drum": 2344,
      "pier": 2345,
      "weeping": 2346,
      "possible": 2347,
      "knee": 2348,
      "kneel": 2349,
      "banishment": 2350,
      "deserved": 2351,
      "guilty": 2352,
      "trouble": 2353,
      "natural": 2354,
      "Isabel": 2355,
      "MARIANA": 2356,
      "Af": 2357,
      "Am": 2358,
      "Bl": 2359,
      "Fa": 2360,
      "Grum": 2361,
      "Out": 2362,
      "Pri": 2363,
      "Pad": 2364,
      "PAR": 2365,
      "RA": 2366,
      "Watch": 2367,
      "big": 2368,
      "citizen": 2369,
      "dar": 2370,
      "doo": 2371,
      "evil": 2372,
      "fing": 2373,
      "fine": 2374,
      "five": 2375,
      "ker": 2376,
      "mut": 2377,
      "sus": 2378,
      "zen": 2379,
      "inf": 2380,
      "stre": 2381,
      "noise": 2382,
      "seal": 2383,
      "second": 2384,
      "reign": 2385,
      "because": 2386,
      "behind": 2387,
      "lease": 2388,
      "forbid": 2389,
      "assa": 2390,
      "aside": 2391,
      "ourselves": 2392,
      "eter": 2393,
      "sole": 2394,
      "dog": 2395,
      "pest": 2396,
      "lock": 2397,
      "condemn": 2398,
      "shepherd": 2399,
      "blow": 2400,
      "wouldst": 2401,
      "letter": 2402,
      "letters": 2403,
      "broad": 2404,
      "ument": 2405,
      "sport": 2406,
      "speaks": 2407,
      "march": 2408,
      "ignor": 2409,
      "grand": 2410,
      "beggar": 2411,
      "Sirrah": 2412,
      "shows": 2413,
      "sentence": 2414,
      "slew": 2415,
      "needs": 2416,
      "sense": 2417,
      "prisoner": 2418,
      "genet": 2419,
      "English": 2420,
      "position": 2421,
      "antagenet": 2422,
      "While": 2423,
      "Gremio": 2424,
      "obey": 2425,
      "conscience": 2426,
      "ladies": 2427,
      "Plantagenet": 2428,
      "liberty": 2429,
      "usurp": 2430,
      "clouds": 2431,
      "Grumio": 2432,
      "Padua": 2433,
      "PARIS": 2434,
      ":'": 2435,
      "Dis": 2436,
      "Fear": 2437,
      "Gaunt": 2438,
      "Men": 2439,
      "Ped": 2440,
      "Too": 2441,
      "Ver": 2442,
      "ale": 2443,
      "bones": 2444,
      "cing": 2445,
      "cret": 2446,
      "cried": 2447,
      "dry": 2448,
      "fat": 2449,
      "hund": 2450,
      "kin": 2451,
      "lp": 2452,
      "ual": 2453,
      "vain": 2454,
      "walk": 2455,
      "yond": 2456,
      "eness": 2457,
      "ators": 2458,
      "stone": 2459,
      "stop": 2460,
      "sever": 2461,
      "secret": 2462,
      "vey": 2463,
      "ities": 2464,
      "lea": 2465,
      "note": 2466,
      "few": 2467,
      "ider": 2468,
      "manner": 2469,
      "conce": 2470,
      "Think": 2471,
      "laid": 2472,
      "iles": 2473,
      "shed": 2474,
      "prosper": 2475,
      "quo": 2476,
      "quit": 2477,
      "dispatch": 2478,
      "fright": 2479,
      "spur": 2480,
      "plant": 2481,
      "lived": 2482,
      "PETER": 2483,
      "longer": 2484,
      "banished": 2485,
      "drunk": 2486,
      "glass": 2487,
      "womb": 2488,
      "golden": 2489,
      "choose": 2490,
      "damn": 2491,
      "Chris": 2492,
      "above": 2493,
      "victory": 2494,
      "swift": 2495,
      "masters": 2496,
      "slander": 2497,
      "hundred": 2498,
      "!--": 2499,
      "Could": 2500,
      "Cates": 2501,
      "DOR": 2502,
      "En": 2503,
      "Earl": 2504,
      "Fri": 2505,
      "LAR": 2506,
      "TIUS": 2507,
      "Wor": 2508,
      "WIS": 2509,
      "XI": 2510,
      "aking": 2511,
      "ail": 2512,
      "din": 2513,
      "dge": 2514,
      "drown": 2515,
      "fru": 2516,
      "lust": 2517,
      "moun": 2518,
      "ot": 2519,
      "phy": 2520,
      "sca": 2521,
      "uri": 2522,
      "ulet": 2523,
      "uction": 2524,
      "wain": 2525,
      "threat": 2526,
      "erle": 2527,
      "inius": 2528,
      "ances": 2529,
      "encounter": 2530,
      "tol": 2531,
      "hap": 2532,
      "bears": 2533,
      "wice": 2534,
      "forgot": 2535,
      "asion": 2536,
      "nder": 2537,
      "liest": 2538,
      "weary": 2539,
      "yourselves": 2540,
      "add": 2541,
      "ures": 2542,
      "host": 2543,
      "ARIEL": 2544,
      "shadow": 2545,
      "arden": 2546,
      "uel": 2547,
      "labour": 2548,
      "ilt": 2549,
      "venge": 2550,
      "ular": 2551,
      "knowledge": 2552,
      "proof": 2553,
      "quite": 2554,
      "oler": 2555,
      "woes": 2556,
      "despair": 2557,
      "desperate": 2558,
      "exc": 2559,
      "bray": 2560,
      "LEWIS": 2561,
      "precious": 2562,
      "effect": 2563,
      "pride": 2564,
      "Citizens": 2565,
      "lordship": 2566,
      "Unto": 2567,
      "steel": 2568,
      "double": 2569,
      "glory": 2570,
      "knees": 2571,
      "entertain": 2572,
      "blessed": 2573,
      "towards": 2574,
      "Capulet": 2575,
      "kinsman": 2576,
      "Watchman": 2577,
      "citizens": 2578,
      "Catesby": 2579,
      "LARTIUS": 2580,
      ";'": 2581,
      "Ab": 2582,
      "Ad": 2583,
      "Aum": 2584,
      "Bro": 2585,
      "MP": 2586,
      "Mow": 2587,
      "Pardon": 2588,
      "RTIS": 2589,
      "alive": 2590,
      "ben": 2591,
      "bastard": 2592,
      "dance": 2593,
      "fought": 2594,
      "grown": 2595,
      "gment": 2596,
      "hn": 2597,
      "mour": 2598,
      "mend": 2599,
      "money": 2600,
      "por": 2601,
      "pes": 2602,
      "sour": 2603,
      "schoo": 2604,
      "ude": 2605,
      "wench": 2606,
      "inking": 2607,
      "enjoy": 2608,
      "army": 2609,
      "ated": 2610,
      "methinks": 2611,
      "seven": 2612,
      "hair": 2613,
      "remain": 2614,
      "itors": 2615,
      "hire": 2616,
      "ires": 2617,
      "deter": 2618,
      "kept": 2619,
      "ads": 2620,
      "allow": 2621,
      "unts": 2622,
      "arest": 2623,
      "shake": 2624,
      "neigh": 2625,
      "contr": 2626,
      "table": 2627,
      "going": 2628,
      "proclaim": 2629,
      "ounds": 2630,
      "spent": 2631,
      "sim": 2632,
      "Within": 2633,
      "struck": 2634,
      "honours": 2635,
      "prepar": 2636,
      "ations": 2637,
      "flowers": 2638,
      "deadly": 2639,
      "clam": 2640,
      "guess": 2641,
      "understand": 2642,
      "steal": 2643,
      "guest": 2644,
      "CURTIS": 2645,
      "foolish": 2646,
      "promised": 2647,
      "John": 2648,
      "author": 2649,
      "wretched": 2650,
      "SAMP": 2651,
      "white": 2652,
      "cheeks": 2653,
      "firm": 2654,
      "Keeper": 2655,
      "Faith": 2656,
      "doom": 2657,
      "Pedant": 2658,
      "quoth": 2659,
      "Aumerle": 2660,
      "Mowbray": 2661,
      "SAMPSON": 2662,
      ":--": 2663,
      "Apo": 2664,
      "BU": 2665,
      "EX": 2666,
      "Either": 2667,
      "Hear": 2668,
      "IGON": 2669,
      "Mine": 2670,
      "Put": 2671,
      "bend": 2672,
      "cir": 2673,
      "dain": 2674,
      "due": 2675,
      "ffi": 2676,
      "hu": 2677,
      "rise": 2678,
      "sy": 2679,
      "vate": 2680,
      "yal": 2681,
      "inj": 2682,
      "orious": 2683,
      "aring": 2684,
      "arri": 2685,
      "stro": 2686,
      "stars": 2687,
      "health": 2688,
      "seiz": 2689,
      "lest": 2690,
      "rot": 2691,
      "deput": 2692,
      "ets": 2693,
      "door": 2694,
      "fell": 2695,
      "tide": 2696,
      "among": 2697,
      "ney": 2698,
      "nest": 2699,
      "supp": 2700,
      "herself": 2701,
      "teen": 2702,
      "teach": 2703,
      "ility": 2704,
      "blind": 2705,
      "cio": 2706,
      "cians": 2707,
      "early": 2708,
      "umb": 2709,
      "qual": 2710,
      "Heaven": 2711,
      "six": 2712,
      "brothers": 2713,
      "honourable": 2714,
      "calls": 2715,
      "bids": 2716,
      "kindred": 2717,
      "charity": 2718,
      "subst": 2719,
      "cutio": 2720,
      "truly": 2721,
      "month": 2722,
      "officer": 2723,
      "minister": 2724,
      "dreams": 2725,
      "humble": 2726,
      "demand": 2727,
      "ANTIGON": 2728,
      "wisdom": 2729,
      "Lewis": 2730,
      "cruel": 2731,
      "judge": 2732,
      "valour": 2733,
      "ician": 2734,
      "wretch": 2735,
      "Poor": 2736,
      "satisfied": 2737,
      "whether": 2738,
      "summer": 2739,
      "scarce": 2740,
      "Mercutio": 2741,
      "True": 2742,
      "school": 2743,
      "BURY": 2744,
      "ANTIGONUS": 2745,
      "Alack": 2746,
      "Bet": 2747,
      "Bid": 2748,
      "Harry": 2749,
      "Know": 2750,
      "Mus": 2751,
      "Made": 2752,
      "Never": 2753,
      "Show": 2754,
      "Twas": 2755,
      "TCLIFF": 2756,
      "avo": 2757,
      "abroad": 2758,
      "bb": 2759,
      "bright": 2760,
      "custom": 2761,
      "dur": 2762,
      "dwell": 2763,
      "eem": 2764,
      "mal": 2765,
      "ni": 2766,
      "ners": 2767,
      "pun": 2768,
      "ron": 2769,
      "ume": 2770,
      "thir": 2771,
      "thro": 2772,
      "ining": 2773,
      "anon": 2774,
      "envy": 2775,
      "arch": 2776,
      "ony": 2777,
      "sem": 2778,
      "hie": 2779,
      "dev": 2780,
      "deal": 2781,
      "alous": 2782,
      "loyal": 2783,
      "idle": 2784,
      "faint": 2785,
      "ament": 2786,
      "convey": 2787,
      "shrew": 2788,
      "iful": 2789,
      "ult": 2790,
      "thereof": 2791,
      "provost": 2792,
      "app": 2793,
      "view": 2794,
      "els": 2795,
      "acle": 2796,
      "angu": 2797,
      "others": 2798,
      "wherefore": 2799,
      "miser": 2800,
      "condition": 2801,
      "party": 2802,
      "foes": 2803,
      "flower": 2804,
      "priest": 2805,
      "private": 2806,
      "trial": 2807,
      "cles": 2808,
      "chase": 2809,
      "pleased": 2810,
      "Once": 2811,
      "crave": 2812,
      "wail": 2813,
      "venture": 2814,
      "vail": 2815,
      "yea": 2816,
      "laugh": 2817,
      "forced": 2818,
      "question": 2819,
      "winter": 2820,
      "Cominius": 2821,
      "walls": 2822,
      "judgment": 2823,
      "Volsces": 2824,
      "prophe": 2825,
      "spring": 2826,
      "creature": 2827,
      "blame": 2828,
      "malice": 2829,
      "RATCLIFF": 2830,
      "vengeance": 2831,
      "'?": 2832,
      "BIS": 2833,
      "Barn": 2834,
      "Des": 2835,
      "Fie": 2836,
      "Hence": 2837,
      "HOP": 2838,
      "Mant": 2839,
      "Ne": 2840,
      "Please": 2841,
      "Rut": 2842,
      "Under": 2843,
      "Vin": 2844,
      "Wi": 2845,
      "bite": 2846,
      "dull": 2847,
      "fold": 2848,
      "gg": 2849,
      "gin": 2850,
      "gown": 2851,
      "garm": 2852,
      "gage": 2853,
      "loo": 2854,
      "mn": 2855,
      "ok": 2856,
      "ray": 2857,
      "swords": 2858,
      "wing": 2859,
      "wag": 2860,
      "yard": 2861,
      "ering": 2862,
      "incl": 2863,
      "ens": 2864,
      "enes": 2865,
      "stones": 2866,
      "stoop": 2867,
      "lly": 2868,
      "meat": 2869,
      "top": 2870,
      "sell": 2871,
      "received": 2872,
      "vell": 2873,
      "leep": 2874,
      "cease": 2875,
      "former": 2876,
      "eding": 2877,
      "ution": 2878,
      "room": 2879,
      "ado": 2880,
      "als": 2881,
      "alter": 2882,
      "unning": 2883,
      "ident": 2884,
      "shal": 2885,
      "concl": 2886,
      "shri": 2887,
      "ANLE": 2888,
      "taken": 2889,
      "modest": 2890,
      "tect": 2891,
      "blest": 2892,
      "bot": 2893,
      "cap": 2894,
      "cian": 2895,
      "cial": 2896,
      "mayst": 2897,
      "proper": 2898,
      "IST": 2899,
      "spake": 2900,
      "vious": 2901,
      "vices": 2902,
      "account": 2903,
      "extre": 2904,
      "tyrant": 2905,
      "counten": 2906,
      "aff": 2907,
      "Lords": 2908,
      "ioli": 2909,
      "pack": 2910,
      "cock": 2911,
      "tract": 2912,
      "tongues": 2913,
      "STANLE": 2914,
      "fellows": 2915,
      "buried": 2916,
      "temper": 2917,
      "clock": 2918,
      "maids": 2919,
      "contented": 2920,
      "corse": 2921,
      "humour": 2922,
      "honesty": 2923,
      "Peter": 2924,
      "Corioli": 2925,
      "Whilst": 2926,
      "Methinks": 2927,
      "Death": 2928,
      "brows": 2929,
      "divine": 2930,
      "changed": 2931,
      "BALT": 2932,
      "Thomas": 2933,
      "easy": 2934,
      "TYBALT": 2935,
      "Paulina": 2936,
      "After": 2937,
      "fruit": 2938,
      "excuse": 2939,
      "deputy": 2940,
      "BISHOP": 2941,
      "Mantua": 2942,
      "Rutland": 2943,
      "Vincentio": 2944,
      "STANLEY": 2945,
      "AL": 2946,
      "GE": 2947,
      "Ind": 2948,
      "KEN": 2949,
      "Si": 2950,
      "Som": 2951,
      "Tut": 2952,
      "ama": 2953,
      "cup": 2954,
      "dri": 2955,
      "dust": 2956,
      "eed": 2957,
      "fan": 2958,
      "fret": 2959,
      "fran": 2960,
      "gif": 2961,
      "ild": 2962,
      "kna": 2963,
      "ler": 2964,
      "pin": 2965,
      "round": 2966,
      "smile": 2967,
      "twixt": 2968,
      "twice": 2969,
      "vish": 2970,
      "whis": 2971,
      "wra": 2972,
      "wine": 2973,
      "wol": 2974,
      "thunder": 2975,
      "anley": 2976,
      "arp": 2977,
      "arti": 2978,
      "star": 2979,
      "llen": 2980,
      "noon": 2981,
      "nose": 2982,
      "ref": 2983,
      "ites": 2984,
      "ited": 2985,
      "beard": 2986,
      "lean": 2987,
      "utter": 2988,
      "lia": 2989,
      "west": 2990,
      "weigh": 2991,
      "wealth": 2992,
      "ghost": 2993,
      "wither": 2994,
      "always": 2995,
      "lot": 2996,
      "idings": 2997,
      "fain": 2998,
      "necess": 2999,
      "constant": 3000,
      "AND": 3001,
      "sheep": 3002,
      "blush": 3003,
      "sail": 3004,
      "safet": 3005,
      "sacred": 3006,
      "sirrah": 3007,
      "therein": 3008,
      "perceive": 3009,
      "fiery": 3010,
      "sire": 3011,
      "stern": 3012,
      "import": 3013,
      "tyran": 3014,
      "chief": 3015,
      "affair": 3016,
      "abs": 3017,
      "prevent": 3018,
      "emp": 3019,
      "embrace": 3020,
      "Anti": 3021,
      "THOM": 3022,
      "commend": 3023,
      "wicked": 3024,
      "courage": 3025,
      "whilst": 3026,
      "Dost": 3027,
      "traitors": 3028,
      "faced": 3029,
      "charged": 3030,
      "rench": 3031,
      "passion": 3032,
      "repent": 3033,
      "drawn": 3034,
      "senate": 3035,
      "wrongs": 3036,
      "remedy": 3037,
      "green": 3038,
      "Stanley": 3039,
      "Prince": 3040,
      "reasons": 3041,
      "gross": 3042,
      "pains": 3043,
      "silence": 3044,
      "Caius": 3045,
      "Jove": 3046,
      "choice": 3047,
      "drop": 3048,
      "knave": 3049,
      "Besides": 3050,
      "plot": 3051,
      "Art": 3052,
      "Mistress": 3053,
      "BRAKEN": 3054,
      "occasion": 3055,
      "innocent": 3056,
      "girl": 3057,
      "Verona": 3058,
      "leaves": 3059,
      "Friar": 3060,
      "Brother": 3061,
      "simple": 3062,
      "prepared": 3063,
      "circ": 3064,
      "Somer": 3065,
      "safety": 3066,
      "THOMAS": 3067,
      "BRAKENBURY": 3068,
      "?'": 3069,
      "Di": 3070,
      "Dor": 3071,
      "DER": 3072,
      "Fl": 3073,
      "GOR": 3074,
      "MIST": 3075,
      "OV": 3076,
      "RESS": 3077,
      "Turn": 3078,
      "aught": 3079,
      "ball": 3080,
      "bark": 3081,
      "eag": 3082,
      "fla": 3083,
      "fury": 3084,
      "garden": 3085,
      "hit": 3086,
      "hors": 3087,
      "itol": 3088,
      "jour": 3089,
      "lan": 3090,
      "langu": 3091,
      "ras": 3092,
      "sits": 3093,
      "uff": 3094,
      "went": 3095,
      "wings": 3096,
      "zard": 3097,
      "inous": 3098,
      "inform": 3099,
      "oracle": 3100,
      "enius": 3101,
      "ating": 3102,
      "onoun": 3103,
      "haps": 3104,
      "roth": 3105,
      "rock": 3106,
      "lix": 3107,
      "del": 3108,
      "dew": 3109,
      "delight": 3110,
      "deceived": 3111,
      "weeds": 3112,
      "key": 3113,
      "thout": 3114,
      "adie": 3115,
      "alas": 3116,
      "hollow": 3117,
      "loath": 3118,
      "tive": 3119,
      "tired": 3120,
      "amp": 3121,
      "ardine": 3122,
      "conqu": 3123,
      "motion": 3124,
      "iff": 3125,
      "wore": 3126,
      "ctise": 3127,
      "complain": 3128,
      "Myself": 3129,
      "mayor": 3130,
      "broken": 3131,
      "prov": 3132,
      "quaint": 3133,
      "plead": 3134,
      "appare": 3135,
      "ONE": 3136,
      "Offi": 3137,
      "design": 3138,
      "despite": 3139,
      "imprison": 3140,
      "wherein": 3141,
      "ughters": 3142,
      "Wherein": 3143,
      "prayer": 3144,
      "pawn": 3145,
      "rude": 3146,
      "holds": 3147,
      "plague": 3148,
      "tread": 3149,
      "treach": 3150,
      "fares": 3151,
      "GREGOR": 3152,
      "meaning": 3153,
      "renown": 3154,
      "jealous": 3155,
      "passing": 3156,
      "welve": 3157,
      "gives": 3158,
      "cares": 3159,
      "carry": 3160,
      "witch": 3161,
      "wanton": 3162,
      "deserve": 3163,
      "silver": 3164,
      "cursed": 3165,
      "troth": 3166,
      "profess": 3167,
      "Having": 3168,
      "Capitol": 3169,
      "belly": 3170,
      "stuff": 3171,
      "castle": 3172,
      "practise": 3173,
      "cheek": 3174,
      "colour": 3175,
      "violent": 3176,
      "boot": 3177,
      "borne": 3178,
      "trumpets": 3179,
      "ERDONE": 3180,
      "hung": 3181,
      "Prithee": 3182,
      "finger": 3183,
      "ignorant": 3184,
      "Menenius": 3185,
      "fatal": 3186,
      "Christi": 3187,
      "benef": 3188,
      "Apollo": 3189,
      "rotten": 3190,
      "Barnardine": 3191,
      "Without": 3192,
      "countenance": 3193,
      "Indeed": 3194,
      "absence": 3195,
      "Somerset": 3196,
      "DERBY": 3197,
      "MISTRESS": 3198,
      "OVERDONE": 3199,
      "adieu": 3200,
      "GREGORY": 3201,
      "CH": 3202,
      "Cousin": 3203,
      "FORD": 3204,
      "Great": 3205,
      "Ho": 3206,
      "OX": 3207,
      "Pis": 3208,
      "RR": 3209,
      "Res": 3210,
      "SOM": 3211,
      "Still": 3212,
      "VAL": 3213,
      "ax": 3214,
      "aim": 3215,
      "cat": 3216,
      "crow": 3217,
      "ek": 3218,
      "fas": 3219,
      "ial": 3220,
      "ience": 3221,
      "lend": 3222,
      "nine": 3223,
      "number": 3224,
      "pul": 3225,
      "passa": 3226,
      "rate": 3227,
      "sme": 3228,
      "sli": 3229,
      "sday": 3230,
      "saint": 3231,
      "sooth": 3232,
      "ton": 3233,
      "tidings": 3234,
      "vantage": 3235,
      "wand": 3236,
      "wof": 3237,
      "wood": 3238,
      "inher": 3239,
      "isle": 3240,
      "envious": 3241,
      "stat": 3242,
      "mess": 3243,
      "esy": 3244,
      "nobles": 3245,
      "rema": 3246,
      "receive": 3247,
      "becomes": 3248,
      "wives": 3249,
      "hion": 3250,
      "asleep": 3251,
      "ldom": 3252,
      "utes": 3253,
      "lim": 3254,
      "deposed": 3255,
      "ety": 3256,
      "ursday": 3257,
      "lod": 3258,
      "fam": 3259,
      "tial": 3260,
      "neg": 3261,
      "butcher": 3262,
      "contract": 3263,
      "Three": 3264,
      "Thursday": 3265,
      "shut": 3266,
      "shore": 3267,
      "tail": 3268,
      "tres": 3269,
      "ERIA": 3270,
      "ify": 3271,
      "persu": 3272,
      "perfect": 3273,
      "outward": 3274,
      "uments": 3275,
      "protect": 3276,
      "whole": 3277,
      "shouldst": 3278,
      "disgrace": 3279,
      "disposition": 3280,
      "Into": 3281,
      "RICHMON": 3282,
      "access": 3283,
      "express": 3284,
      "excell": 3285,
      "bran": 3286,
      "babe": 3287,
      "gentlewoman": 3288,
      "offend": 3289,
      "standing": 3290,
      "Mark": 3291,
      "prepare": 3292,
      "names": 3293,
      "parts": 3294,
      "serves": 3295,
      "undone": 3296,
      "resign": 3297,
      "commit": 3298,
      "inted": 3299,
      "Rivers": 3300,
      "preser": 3301,
      "ruin": 3302,
      "whither": 3303,
      "begins": 3304,
      "mione": 3305,
      "brain": 3306,
      "tedious": 3307,
      "farther": 3308,
      "thrust": 3309,
      "seeming": 3310,
      "quire": 3311,
      "clear": 3312,
      "follows": 3313,
      "followers": 3314,
      "curst": 3315,
      "fools": 3316,
      "Hermione": 3317,
      "hanging": 3318,
      "spoken": 3319,
      "groom": 3320,
      "lamb": 3321,
      "advise": 3322,
      "advantage": 3323,
      "Grey": 3324,
      "troop": 3325,
      "instruct": 3326,
      "supper": 3327,
      "ERSET": 3328,
      "resolved": 3329,
      "cries": 3330,
      "mission": 3331,
      "guilt": 3332,
      "awake": 3333,
      "thrive": 3334,
      "burthen": 3335,
      "sighs": 3336,
      "dreadful": 3337,
      "hurt": 3338,
      "storm": 3339,
      "obedience": 3340,
      "damned": 3341,
      "dinner": 3342,
      "physi": 3343,
      "authority": 3344,
      "Musician": 3345,
      "throat": 3346,
      "devise": 3347,
      "garments": 3348,
      "affairs": 3349,
      "rascal": 3350,
      "Christian": 3351,
      "benefit": 3352,
      "OXFORD": 3353,
      "Pisa": 3354,
      "SOMERSET": 3355,
      "VALERIA": 3356,
      "woful": 3357,
      "RICHMOND": 3358,
      "AE": 3359,
      "AMIL": 3360,
      "Br": 3361,
      "BUS": 3362,
      "Bion": 3363,
      "Bona": 3364,
      "El": 3365,
      "Gra": 3366,
      "HY": 3367,
      "Has": 3368,
      "LIUS": 3369,
      "MOW": 3370,
      "MOP": 3371,
      "MAMIL": 3372,
      "Sici": 3373,
      "Two": 3374,
      "Tail": 3375,
      "Very": 3376,
      "bas": 3377,
      "bond": 3378,
      "cate": 3379,
      "cunning": 3380,
      "ele": 3381,
      "east": 3382,
      "fle": 3383,
      "flight": 3384,
      "flies": 3385,
      "gy": 3386,
      "ime": 3387,
      "ives": 3388,
      "iest": 3389,
      "line": 3390,
      "list": 3391,
      "mur": 3392,
      "mbr": 3393,
      "pure": 3394,
      "rt": 3395,
      "rent": 3396,
      "rash": 3397,
      "san": 3398,
      "sho": 3399,
      "sway": 3400,
      "tut": 3401,
      "twelve": 3402,
      "ug": 3403,
      "ued": 3404,
      "van": 3405,
      "yonder": 3406,
      "thi": 3407,
      "inion": 3408,
      "ences": 3409,
      "step": 3410,
      "stab": 3411,
      "habit": 3412,
      "vex": 3413,
      "belike": 3414,
      "beloved": 3415,
      "beheld": 3416,
      "legs": 3417,
      "owe": 3418,
      "forsworn": 3419,
      "asp": 3420,
      "roar": 3421,
      "root": 3422,
      "lion": 3423,
      "delay": 3424,
      "dello": 3425,
      "weight": 3426,
      "weap": 3427,
      "adventure": 3428,
      "alm": 3429,
      "usion": 3430,
      "rain": 3431,
      "until": 3432,
      "sued": 3433,
      "sured": 3434,
      "suffi": 3435,
      "conj": 3436,
      "pronoun": 3437,
      "shr": 3438,
      "taste": 3439,
      "ouses": 3440,
      "ETER": 3441,
      "teeth": 3442,
      "goodness": 3443,
      "iffer": 3444,
      "kingly": 3445,
      "peril": 3446,
      "perish": 3447,
      "atest": 3448,
      "seeing": 3449,
      "ages": 3450,
      "ump": 3451,
      "umble": 3452,
      "protest": 3453,
      "timely": 3454,
      "quench": 3455,
      "Help": 3456,
      "fathers": 3457,
      "disdain": 3458,
      "ounty": 3459,
      "spend": 3460,
      "accept": 3461,
      "Believe": 3462,
      "ABHOR": 3463,
      "exile": 3464,
      "affect": 3465,
      "ursed": 3466,
      "prey": 3467,
      "prevail": 3468,
      "conduct": 3469,
      "tled": 3470,
      "emplo": 3471,
      "paper": 3472,
      "fortunes": 3473,
      "betwixt": 3474,
      "daughters": 3475,
      "intend": 3476,
      "prize": 3477,
      "dying": 3478,
      "parent": 3479,
      "gues": 3480,
      "keeps": 3481,
      "denied": 3482,
      "confer": 3483,
      "chair": 3484,
      "sorry": 3485,
      "happiness": 3486,
      "compan": 3487,
      "Boy": 3488,
      "remembr": 3489,
      "petition": 3490,
      "spirits": 3491,
      "crack": 3492,
      "slow": 3493,
      "accus": 3494,
      "accuse": 3495,
      "corrup": 3496,
      "humbly": 3497,
      "wounded": 3498,
      "courtesy": 3499,
      "Leave": 3500,
      "penit": 3501,
      "wallow": 3502,
      "atswain": 3503,
      "resolve": 3504,
      "wont": 3505,
      "credit": 3506,
      "Polix": 3507,
      "wedding": 3508,
      "Beseech": 3509,
      "palace": 3510,
      "direct": 3511,
      "BRAY": 3512,
      "pleasant": 3513,
      "large": 3514,
      "continue": 3515,
      "dares": 3516,
      "solemn": 3517,
      "several": 3518,
      "threaten": 3519,
      "neighbour": 3520,
      "contrary": 3521,
      "EXETER": 3522,
      "human": 3523,
      "punish": 3524,
      "miserable": 3525,
      "wrath": 3526,
      "empty": 3527,
      "circum": 3528,
      "horses": 3529,
      "conquer": 3530,
      "Officer": 3531,
      "BUSHY": 3532,
      "Biondello": 3533,
      "MOWBRAY": 3534,
      "MOPSA": 3535,
      "MAMILLIUS": 3536,
      "Tailor": 3537,
      "ABHORSON": 3538,
      "employ": 3539,
      "Polixenes": 3540,
      "Bear": 3541,
      "CY": 3542,
      "Dear": 3543,
      "Father": 3544,
      "French": 3545,
      "Might": 3546,
      "None": 3547,
      "Nap": 3548,
      "Ret": 3549,
      "Right": 3550,
      "Wid": 3551,
      "ago": 3552,
      "catch": 3553,
      "dit": 3554,
      "ded": 3555,
      "dag": 3556,
      "fro": 3557,
      "furn": 3558,
      "gon": 3559,
      "gate": 3560,
      "hark": 3561,
      "houses": 3562,
      "iled": 3563,
      "luck": 3564,
      "mere": 3565,
      "mill": 3566,
      "mity": 3567,
      "ns": 3568,
      "naked": 3569,
      "pic": 3570,
      "pub": 3571,
      "song": 3572,
      "sco": 3573,
      "swallow": 3574,
      "wond": 3575,
      "wits": 3576,
      "wreck": 3577,
      "intell": 3578,
      "infect": 3579,
      "incre": 3580,
      "story": 3581,
      "heed": 3582,
      "seas": 3583,
      "reed": 3584,
      "reward": 3585,
      "beyond": 3586,
      "hid": 3587,
      "rose": 3588,
      "dep": 3589,
      "devo": 3590,
      "wept": 3591,
      "hatred": 3592,
      "ourish": 3593,
      "ride": 3594,
      "urance": 3595,
      "raw": 3596,
      "unnatural": 3597,
      "making": 3598,
      "fee": 3599,
      "ARCH": 3600,
      "hereafter": 3601,
      "fail": 3602,
      "faces": 3603,
      "tire": 3604,
      "amen": 3605,
      "suck": 3606,
      "terror": 3607,
      "endure": 3608,
      "lace": 3609,
      "shun": 3610,
      "taught": 3611,
      "ously": 3612,
      "bodies": 3613,
      "ants": 3614,
      "capt": 3615,
      "perpet": 3616,
      "comfor": 3617,
      "comple": 3618,
      "seest": 3619,
      "theirs": 3620,
      "dign": 3621,
      "Nothing": 3622,
      "wholes": 3623,
      "apt": 3624,
      "appoint": 3625,
      "sometime": 3626,
      "sometimes": 3627,
      "fig": 3628,
      "discover": 3629,
      "wot": 3630,
      "spare": 3631,
      "hearted": 3632,
      "vide": 3633,
      "market": 3634,
      "ples": 3635,
      "expect": 3636,
      "iment": 3637,
      "chide": 3638,
      "mistake": 3639,
      "misery": 3640,
      "fairly": 3641,
      "Marshal": 3642,
      "services": 3643,
      "called": 3644,
      "assist": 3645,
      "assurance": 3646,
      "folly": 3647,
      "THAS": 3648,
      "intent": 3649,
      "scene": 3650,
      "Thanks": 3651,
      "rule": 3652,
      "opinion": 3653,
      "trick": 3654,
      "whiles": 3655,
      "crowns": 3656,
      "partic": 3657,
      "joys": 3658,
      "joyful": 3659,
      "needful": 3660,
      "undertake": 3661,
      "PERCY": 3662,
      "giving": 3663,
      "build": 3664,
      "patri": 3665,
      "curses": 3666,
      "senators": 3667,
      "Only": 3668,
      "monstr": 3669,
      "turns": 3670,
      "waking": 3671,
      "winds": 3672,
      "commanded": 3673,
      "groan": 3674,
      "painted": 3675,
      "Mayor": 3676,
      "waters": 3677,
      "advance": 3678,
      "advised": 3679,
      "destroy": 3680,
      "instrument": 3681,
      "calm": 3682,
      "leads": 3683,
      "counterfeit": 3684,
      "drops": 3685,
      "shortly": 3686,
      "duked": 3687,
      "praise": 3688,
      "Love": 3689,
      "hopes": 3690,
      "griev": 3691,
      "sky": 3692,
      "piteous": 3693,
      "colours": 3694,
      "BALTHAS": 3695,
      "reverend": 3696,
      "princes": 3697,
      "princess": 3698,
      "willingly": 3699,
      "government": 3700,
      "urious": 3701,
      "determin": 3702,
      "durst": 3703,
      "looking": 3704,
      "language": 3705,
      "apparel": 3706,
      "remains": 3707,
      "excellent": 3708,
      "remembrance": 3709,
      "Widow": 3710,
      "picion": 3711,
      "public": 3712,
      "wholesome": 3713,
      "dukedom": 3714,
      "BALTHASAR": 3715,
      "?--": 3716,
      "Ac": 3717,
      "Amen": 3718,
      "Four": 3719,
      "FOL": 3720,
      "Im": 3721,
      "Just": 3722,
      "Lay": 3723,
      "Long": 3724,
      "Pat": 3725,
      "Page": 3726,
      "Post": 3727,
      "Rep": 3728,
      "Set": 3729,
      "Sup": 3730,
      "Save": 3731,
      "Sold": 3732,
      "Tit": 3733,
      "Vi": 3734,
      "Whither": 3735,
      "ald": 3736,
      "bon": 3737,
      "bare": 3738,
      "cend": 3739,
      "cise": 3740,
      "fare": 3741,
      "gree": 3742,
      "knight": 3743,
      "lis": 3744,
      "mul": 3745,
      "murderer": 3746,
      "net": 3747,
      "nought": 3748,
      "pent": 3749,
      "purse": 3750,
      "powers": 3751,
      "ress": 3752,
      "rust": 3753,
      "rous": 3754,
      "sink": 3755,
      "sins": 3756,
      "slay": 3757,
      "scept": 3758,
      "slip": 3759,
      "tort": 3760,
      "uary": 3761,
      "vouch": 3762,
      "vours": 3763,
      "wake": 3764,
      "thorn": 3765,
      "inst": 3766,
      "instant": 3767,
      "orous": 3768,
      "ises": 3769,
      "ishop": 3770,
      "enmity": 3771,
      "aries": 3772,
      "attempt": 3773,
      "stol": 3774,
      "store": 3775,
      "stret": 3776,
      "strew": 3777,
      "meant": 3778,
      "medi": 3779,
      "member": 3780,
      "tomb": 3781,
      "sequ": 3782,
      "season": 3783,
      "repe": 3784,
      "rebel": 3785,
      "repair": 3786,
      "revol": 3787,
      "realm": 3788,
      "vest": 3789,
      "behalf": 3790,
      "hill": 3791,
      "choler": 3792,
      "rogue": 3793,
      "liar": 3794,
      "dece": 3795,
      "deem": 3796,
      "debt": 3797,
      "degree": 3798,
      "weather": 3799,
      "keeper": 3800,
      "ries": 3801,
      "aded": 3802,
      "advers": 3803,
      "uses": 3804,
      "soever": 3805,
      "raise": 3806,
      "ording": 3807,
      "unknown": 3808,
      "untimely": 3809,
      "mag": 3810,
      "mage": 3811,
      "maint": 3812,
      "feed": 3813,
      "idence": 3814,
      "fame": 3815,
      "faction": 3816,
      "manners": 3817,
      "tied": 3818,
      "tily": 3819,
      "shape": 3820,
      "sues": 3821,
      "terms": 3822,
      "arts": 3823,
      "sharp": 3824,
      "comest": 3825,
      "taking": 3826,
      "boar": 3827,
      "venom": 3828,
      "compl": 3829,
      "earnest": 3830,
      "special": 3831,
      "brook": 3832,
      "Young": 3833,
      "appre": 3834,
      "fix": 3835,
      "CAS": 3836,
      "disper": 3837,
      "spite": 3838,
      "brings": 3839,
      "bred": 3840,
      "armour": 3841,
      "friendly": 3842,
      "absent": 3843,
      "March": 3844,
      "merit": 3845,
      "pping": 3846,
      "write": 3847,
      "bearing": 3848,
      "privile": 3849,
      "longs": 3850,
      "trade": 3851,
      "kindly": 3852,
      "engthen": 3853,
      "slept": 3854,
      "camest": 3855,
      "lasting": 3856,
      "dress": 3857,
      "glorious": 3858,
      "boys": 3859,
      "ships": 3860,
      "clothe": 3861,
      "maiden": 3862,
      "Boatswain": 3863,
      "grey": 3864,
      "hateful": 3865,
      "ROSS": 3866,
      "wants": 3867,
      "deserves": 3868,
      "Gentlemen": 3869,
      "NORFOL": 3870,
      "freely": 3871,
      "smooth": 3872,
      "uteous": 3873,
      "Lucio": 3874,
      "grows": 3875,
      "consider": 3876,
      "Came": 3877,
      "instruction": 3878,
      "supposed": 3879,
      "bird": 3880,
      "profit": 3881,
      "granted": 3882,
      "feeling": 3883,
      "resolution": 3884,
      "Volsce": 3885,
      "knife": 3886,
      "torment": 3887,
      "frame": 3888,
      "odds": 3889,
      "solute": 3890,
      "respected": 3891,
      "Those": 3892,
      "pleasing": 3893,
      "approach": 3894,
      "gently": 3895,
      "Exeter": 3896,
      "obedient": 3897,
      "drums": 3898,
      "suspect": 3899,
      "suspicion": 3900,
      "DORCAS": 3901,
      "Worthy": 3902,
      "mourn": 3903,
      "seize": 3904,
      "amazed": 3905,
      "Dorset": 3906,
      "treacher": 3907,
      "fashion": 3908,
      "passage": 3909,
      "Sicilia": 3910,
      "sanct": 3911,
      "thief": 3912,
      "Naples": 3913,
      "dagger": 3914,
      "scope": 3915,
      "intellig": 3916,
      "increase": 3917,
      "captain": 3918,
      "particular": 3919,
      "monstrous": 3920,
      "sceptre": 3921,
      "NORFOLK": 3922,
      "Ber": 3923,
      "Bre": 3924,
      "Bra": 3925,
      "Bring": 3926,
      "Co": 3927,
      "Down": 3928,
      "Fe": 3929,
      "FERD": 3930,
      "Froth": 3931,
      "GH": 3932,
      "Ghost": 3933,
      "Hunts": 3934,
      "Ire": 3935,
      "Jack": 3936,
      "La": 3937,
      "Mil": 3938,
      "NS": 3939,
      "Play": 3940,
      "Rat": 3941,
      "Son": 3942,
      "Sal": 3943,
      "SET": 3944,
      "Stri": 3945,
      "Wilt": 3946,
      "alike": 3947,
      "bill": 3948,
      "bours": 3949,
      "cere": 3950,
      "cus": 3951,
      "chast": 3952,
      "dower": 3953,
      "eve": 3954,
      "equal": 3955,
      "fy": 3956,
      "fif": 3957,
      "hunt": 3958,
      "ia": 3959,
      "irest": 3960,
      "knot": 3961,
      "lun": 3962,
      "lark": 3963,
      "loud": 3964,
      "nal": 3965,
      "oak": 3966,
      "path": 3967,
      "pound": 3968,
      "ption": 3969,
      "rand": 3970,
      "rend": 3971,
      "sain": 3972,
      "sion": 3973,
      "swell": 3974,
      "sore": 3975,
      "south": 3976,
      "vows": 3977,
      "yo": 3978,
      "thread": 3979,
      "ints": 3980,
      "island": 3981,
      "enforce": 3982,
      "ature": 3983,
      "atic": 3984,
      "melt": 3985,
      "esca": 3986,
      "nobl": 3987,
      "nobly": 3988,
      "rey": 3989,
      "rece": 3990,
      "rebell": 3991,
      "veins": 3992,
      "bethink": 3993,
      "forbear": 3994,
      "fords": 3995,
      "assured": 3996,
      "liament": 3997,
      "oot": 3998,
      "ades": 3999,
      "adver": 4000,
      "advice": 4001,
      "urged": 4002,
      "INAND": 4003,
      "raised": 4004,
      "unless": 4005,
      "unjust": 4006,
      "peers": 4007,
      "fears": 4008,
      "locks": 4009,
      "contempt": 4010,
      "shine": 4011,
      "points": 4012,
      "tame": 4013,
      "takes": 4014,
      "lovely": 4015,
      "perj": 4016,
      "perforce": 4017,
      "outs": 4018,
      "commission": 4019,
      "saying": 4020,
      "lets": 4021,
      "dile": 4022,
      "ague": 4023,
      "likely": 4024,
      "provo": 4025,
      "shoulder": 4026,
      "estate": 4027,
      "exam": 4028,
      "heavi": 4029,
      "tells": 4030,
      "whereof": 4031,
      "county": 4032,
      "afford": 4033,
      "hasty": 4034,
      "abhor": 4035,
      "served": 4036,
      "flow": 4037,
      "paid": 4038,
      "merri": 4039,
      "north": 4040,
      "daily": 4041,
      "warlike": 4042,
      "wrought": 4043,
      "score": 4044,
      "ruth": 4045,
      "ruly": 4046,
      "puts": 4047,
      "oppos": 4048,
      "begg": 4049,
      "begun": 4050,
      "trees": 4051,
      "braw": 4052,
      "parliament": 4053,
      "Until": 4054,
      "GREEN": 4055,
      "finds": 4056,
      "jewel": 4057,
      "afternoon": 4058,
      "shield": 4059,
      "carried": 4060,
      "current": 4061,
      "virgin": 4062,
      "greatest": 4063,
      "elder": 4064,
      "soundly": 4065,
      "wait": 4066,
      "accused": 4067,
      "according": 4068,
      "sends": 4069,
      "vault": 4070,
      "revenged": 4071,
      "hanged": 4072,
      "desert": 4073,
      "Rosal": 4074,
      "Conspir": 4075,
      "groans": 4076,
      "smiles": 4077,
      "single": 4078,
      "hardly": 4079,
      "silent": 4080,
      "ALONS": 4081,
      "instruments": 4082,
      "darest": 4083,
      "profan": 4084,
      "pieces": 4085,
      "stock": 4086,
      "study": 4087,
      "sickness": 4088,
      "waste": 4089,
      "Romans": 4090,
      "thrice": 4091,
      "Pomfret": 4092,
      "aboard": 4093,
      "grieve": 4094,
      "fires": 4095,
      "odd": 4096,
      "Keep": 4097,
      "imag": 4098,
      "reverence": 4099,
      "TYRR": 4100,
      "boots": 4101,
      "cliff": 4102,
      "affections": 4103,
      "streets": 4104,
      "prosperous": 4105,
      "DORSET": 4106,
      "lusty": 4107,
      "haply": 4108,
      "About": 4109,
      "arrived": 4110,
      "stroke": 4111,
      "avoid": 4112,
      "third": 4113,
      "extreme": 4114,
      "affli": 4115,
      "gift": 4116,
      "whisper": 4117,
      "journey": 4118,
      "imprisonment": 4119,
      "messenger": 4120,
      "protector": 4121,
      "committed": 4122,
      "AEdile": 4123,
      "murd": 4124,
      "circumst": 4125,
      "perpetual": 4126,
      "grievous": 4127,
      "Soldier": 4128,
      "Titus": 4129,
      "maintain": 4130,
      "treacherous": 4131,
      "sanctuary": 4132,
      "FERDINAND": 4133,
      "Huntsman": 4134,
      "Ireland": 4135,
      "Ratcliff": 4136,
      "Rosaline": 4137,
      "ALONSO": 4138,
      "TYRREL": 4139,
      ";--": 4140,
      "Ap": 4141,
      "Ano": 4142,
      "Ben": 4143,
      "Bus": 4144,
      "Cour": 4145,
      "Der": 4146,
      "Draw": 4147,
      "Fo": 4148,
      "Fare": 4149,
      "Fair": 4150,
      "Happ": 4151,
      "LIS": 4152,
      "Makes": 4153,
      "Rather": 4154,
      "Soft": 4155,
      "Tar": 4156,
      "Tri": 4157,
      "Twere": 4158,
      "ah": 4159,
      "buck": 4160,
      "bility": 4161,
      "cou": 4162,
      "cti": 4163,
      "coff": 4164,
      "differ": 4165,
      "event": 4166,
      "fun": 4167,
      "food": 4168,
      "frow": 4169,
      "horn": 4170,
      "iance": 4171,
      "lour": 4172,
      "lent": 4173,
      "length": 4174,
      "mand": 4175,
      "nap": 4176,
      "oe": 4177,
      "ointed": 4178,
      "ping": 4179,
      "pup": 4180,
      "pil": 4181,
      "rare": 4182,
      "rrel": 4183,
      "snow": 4184,
      "tall": 4185,
      "tur": 4186,
      "tree": 4187,
      "task": 4188,
      "tarry": 4189,
      "waked": 4190,
      "wakes": 4191,
      "yes": 4192,
      "erce": 4193,
      "iny": 4194,
      "incen": 4195,
      "ortion": 4196,
      "isbury": 4197,
      "enant": 4198,
      "enna": 4199,
      "ative": 4200,
      "ont": 4201,
      "sting": 4202,
      "stout": 4203,
      "stable": 4204,
      "stamp": 4205,
      "melan": 4206,
      "tom": 4207,
      "hest": 4208,
      "youn": 4209,
      "esar": 4210,
      "sees": 4211,
      "sets": 4212,
      "secure": 4213,
      "havi": 4214,
      "recon": 4215,
      "remor": 4216,
      "rejo": 4217,
      "reput": 4218,
      "remove": 4219,
      "record": 4220,
      "redeem": 4221,
      "vet": 4222,
      "betr": 4223,
      "betimes": 4224,
      "wide": 4225,
      "myster": 4226,
      "owl": 4227,
      "forgive": 4228,
      "forswear": 4229,
      "forfeit": 4230,
      "assure": 4231,
      "irt": 4232,
      "eder": 4233,
      "utenant": 4234,
      "rob": 4235,
      "lift": 4236,
      "liken": 4237,
      "limit": 4238,
      "deck": 4239,
      "detest": 4240,
      "ool": 4241,
      "oose": 4242,
      "ripe": 4243,
      "admit": 4244,
      "although": 4245,
      "alack": 4246,
      "alliance": 4247,
      "urge": 4248,
      "lying": 4249,
      "rail": 4250,
      "unhappy": 4251,
      "holp": 4252,
      "mach": 4253,
      "fest": 4254,
      "feet": 4255,
      "feather": 4256,
      "lots": 4257,
      "fact": 4258,
      "fairest": 4259,
      "tier": 4260,
      "ams": 4261,
      "aming": 4262,
      "hers": 4263,
      "contro": 4264,
      "morn": 4265,
      "mory": 4266,
      "poli": 4267,
      "poster": 4268,
      "tap": 4269,
      "teous": 4270,
      "caught": 4271,
      "blown": 4272,
      "blunt": 4273,
      "dim": 4274,
      "civil": 4275,
      "aged": 4276,
      "agree": 4277,
      "umbling": 4278,
      "vessel": 4279,
      "Noble": 4280,
      "muster": 4281,
      "graves": 4282,
      "appet": 4283,
      "apparent": 4284,
      "dissem": 4285,
      "spy": 4286,
      "spit": 4287,
      "aches": 4288,
      "achie": 4289,
      "desires": 4290,
      "exer": 4291,
      "exchange": 4292,
      "bade": 4293,
      "impossible": 4294,
      "counc": 4295,
      "newly": 4296,
      "mistrust": 4297,
      "ably": 4298,
      "abide": 4299,
      "offended": 4300,
      "fairer": 4301,
      "Marian": 4302,
      "parting": 4303,
      "parted": 4304,
      "partly": 4305,
      "joint": 4306,
      "flood": 4307,
      "cot": 4308,
      "cost": 4309,
      "ullus": 4310,
      "grat": 4311,
      "wrink": 4312,
      "scal": 4313,
      "prick": 4314,
      "ruled": 4315,
      "tribut": 4316,
      "whip": 4317,
      "begu": 4318,
      "treasure": 4319,
      "Proceed": 4320,
      "helm": 4321,
      "charac": 4322,
      "powerful": 4323,
      "besides": 4324,
      "beseem": 4325,
      "native": 4326,
      "stead": 4327,
      "tempest": 4328,
      "meeting": 4329,
      "weeps": 4330,
      "craft": 4331,
      "dowry": 4332,
      "posing": 4333,
      "accident": 4334,
      "falsehood": 4335,
      "Tyrrel": 4336,
      "surely": 4337,
      "corre": 4338,
      "sovereignty": 4339,
      "slaves": 4340,
      "commons": 4341,
      "twain": 4342,
      "oaths": 4343,
      "faithful": 4344,
      "Cannot": 4345,
      "Commend": 4346,
      "growing": 4347,
      "heirs": 4348,
      "below": 4349,
      "Remember": 4350,
      "Caesar": 4351,
      "defence": 4352,
      "pression": 4353,
      "choly": 4354,
      "beholding": 4355,
      "augh": 4356,
      "stopp": 4357,
      "stomach": 4358,
      "pitch": 4359,
      "barren": 4360,
      "books": 4361,
      "proportion": 4362,
      "breathed": 4363,
      "mouths": 4364,
      "weakness": 4365,
      "virtues": 4366,
      "direction": 4367,
      "bridegroom": 4368,
      "image": 4369,
      "salt": 4370,
      "regal": 4371,
      "regard": 4372,
      "tremble": 4373,
      "gallant": 4374,
      "ifest": 4375,
      "occup": 4376,
      "beasts": 4377,
      "cords": 4378,
      "conceit": 4379,
      "entertainment": 4380,
      "substit": 4381,
      "Six": 4382,
      "fancy": 4383,
      "knaves": 4384,
      "tyranny": 4385,
      "Flor": 4386,
      "ballad": 4387,
      "provided": 4388,
      "renowned": 4389,
      "smell": 4390,
      "stabb": 4391,
      "conference": 4392,
      "penitent": 4393,
      "devotion": 4394,
      "complex": 4395,
      "dignity": 4396,
      "patricians": 4397,
      "determined": 4398,
      "Fourth": 4399,
      "Vienna": 4400,
      "deceit": 4401,
      "Milan": 4402,
      "Salisbury": 4403,
      "ceremon": 4404,
      "yoke": 4405,
      "rebellion": 4406,
      "Derby": 4407,
      "froward": 4408,
      "pilgri": 4409,
      "melancholy": 4410,
      "havior": 4411,
      "reconci": 4412,
      "betray": 4413,
      "appetite": 4414,
      ".--": 4415,
      "AD": 4416,
      "Cur": 4417,
      "Cry": 4418,
      "CLE": 4419,
      "County": 4420,
      "Each": 4421,
      "FRO": 4422,
      "Get": 4423,
      "Him": 4424,
      "IT": 4425,
      "Jes": 4426,
      "Lie": 4427,
      "Larti": 4428,
      "Min": 4429,
      "Many": 4430,
      "OMEN": 4431,
      "Qu": 4432,
      "RIAN": 4433,
      "Sit": 4434,
      "Sound": 4435,
      "Tush": 4436,
      "Time": 4437,
      "Tullus": 4438,
      "UGH": 4439,
      "Ven": 4440,
      "Vill": 4441,
      "Whe": 4442,
      "WIL": 4443,
      "ali": 4444,
      "apo": 4445,
      "bble": 4446,
      "bag": 4447,
      "bation": 4448,
      "block": 4449,
      "cas": 4450,
      "cue": 4451,
      "cul": 4452,
      "chaste": 4453,
      "cket": 4454,
      "fish": 4455,
      "fits": 4456,
      "goose": 4457,
      "iam": 4458,
      "ible": 4459,
      "len": 4460,
      "lain": 4461,
      "mood": 4462,
      "nes": 4463,
      "ope": 4464,
      "ola": 4465,
      "pill": 4466,
      "sple": 4467,
      "swain": 4468,
      "swore": 4469,
      "twill": 4470,
      "tard": 4471,
      "tles": 4472,
      "uce": 4473,
      "var": 4474,
      "wan": 4475,
      "wink": 4476,
      "whor": 4477,
      "thin": 4478,
      "infection": 4479,
      "anointed": 4480,
      "thecar": 4481,
      "ories": 4482,
      "ency": 4483,
      "enches": 4484,
      "arth": 4485,
      "arrow": 4486,
      "onation": 4487,
      "stumble": 4488,
      "mew": 4489,
      "memory": 4490,
      "toad": 4491,
      "toil": 4492,
      "andal": 4493,
      "nod": 4494,
      "sepul": 4495,
      "seldom": 4496,
      "rear": 4497,
      "requ": 4498,
      "reap": 4499,
      "reach": 4500,
      "repose": 4501,
      "removed": 4502,
      "retire": 4503,
      "itch": 4504,
      "belie": 4505,
      "league": 4506,
      "iron": 4507,
      "iring": 4508,
      "edge": 4509,
      "lier": 4510,
      "dec": 4511,
      "deaf": 4512,
      "decl": 4513,
      "dearest": 4514,
      "weal": 4515,
      "hated": 4516,
      "kest": 4517,
      "withdraw": 4518,
      "alo": 4519,
      "aly": 4520,
      "alms": 4521,
      "ushes": 4522,
      "soci": 4523,
      "dove": 4524,
      "uns": 4525,
      "uncles": 4526,
      "male": 4527,
      "pee": 4528,
      "pear": 4529,
      "feign": 4530,
      "felt": 4531,
      "lover": 4532,
      "manage": 4533,
      "manifest": 4534,
      "tiest": 4535,
      "shapes": 4536,
      "amity": 4537,
      "aments": 4538,
      "wills": 4539,
      "super": 4540,
      "suitor": 4541,
      "sullen": 4542,
      "concer": 4543,
      "Through": 4544,
      "moves": 4545,
      "seless": 4546,
      "ified": 4547,
      "illy": 4548,
      "bleeding": 4549,
      "ongst": 4550,
      "selfsame": 4551,
      "lovest": 4552,
      "perhaps": 4553,
      "comb": 4554,
      "compass": 4555,
      "cies": 4556,
      "foreign": 4557,
      "LOUGH": 4558,
      "proclam": 4559,
      "fierce": 4560,
      "tooth": 4561,
      "disgu": 4562,
      "disease": 4563,
      "dismal": 4564,
      "deaths": 4565,
      "estim": 4566,
      "vied": 4567,
      "marks": 4568,
      "acquaint": 4569,
      "heartily": 4570,
      "Behold": 4571,
      "stranger": 4572,
      "struction": 4573,
      "Off": 4574,
      "angling": 4575,
      "descent": 4576,
      "extrem": 4577,
      "babes": 4578,
      "imble": 4579,
      "lesser": 4580,
      "mischance": 4581,
      "abused": 4582,
      "absolute": 4583,
      "ement": 4584,
      "embra": 4585,
      "jot": 4586,
      "Italy": 4587,
      "greatness": 4588,
      "redress": 4589,
      "heavenly": 4590,
      "flat": 4591,
      "pable": 4592,
      "pause": 4593,
      "sweeter": 4594,
      "Anon": 4595,
      "coat": 4596,
      "warri": 4597,
      "restra": 4598,
      "graced": 4599,
      "scold": 4600,
      "settled": 4601,
      "household": 4602,
      "began": 4603,
      "cloud": 4604,
      "rights": 4605,
      "places": 4606,
      "angel": 4607,
      "bank": 4608,
      "Uncle": 4609,
      "purchase": 4610,
      "tains": 4611,
      "tainted": 4612,
      "dearly": 4613,
      "laws": 4614,
      "subtle": 4615,
      "William": 4616,
      "confir": 4617,
      "younger": 4618,
      "minds": 4619,
      "rank": 4620,
      "happily": 4621,
      "steeds": 4622,
      "buz": 4623,
      "bush": 4624,
      "garland": 4625,
      "sorrows": 4626,
      "monument": 4627,
      "griefs": 4628,
      "craves": 4629,
      "sleeping": 4630,
      "thankful": 4631,
      "accursed": 4632,
      "countrymen": 4633,
      "careless": 4634,
      "irect": 4635,
      "hangs": 4636,
      "windows": 4637,
      "beauteous": 4638,
      "yielded": 4639,
      "appeal": 4640,
      "trusty": 4641,
      "plainly": 4642,
      "visage": 4643,
      "Didst": 4644,
      "game": 4645,
      "gaze": 4646,
      "sights": 4647,
      "Mean": 4648,
      "stronger": 4649,
      "wooing": 4650,
      "object": 4651,
      "executed": 4652,
      "Hail": 4653,
      "burnt": 4654,
      "burning": 4655,
      "succeed": 4656,
      "fourteen": 4657,
      "whit": 4658,
      "Perdit": 4659,
      "burst": 4660,
      "writing": 4661,
      "satisfy": 4662,
      "frowns": 4663,
      "servants": 4664,
      "frail": 4665,
      "actions": 4666,
      "harsh": 4667,
      "changing": 4668,
      "trembling": 4669,
      "triumphant": 4670,
      "executioner": 4671,
      "mirth": 4672,
      "pierce": 4673,
      "bigger": 4674,
      "infant": 4675,
      "ignorance": 4676,
      "conceal": 4677,
      "scape": 4678,
      "uries": 4679,
      "shadows": 4680,
      "determine": 4681,
      "strokes": 4682,
      "supply": 4683,
      "Better": 4684,
      "avoided": 4685,
      "thirty": 4686,
      "shrewd": 4687,
      "prophet": 4688,
      "wager": 4689,
      "modesty": 4690,
      "wolf": 4691,
      "refuse": 4692,
      "eagle": 4693,
      "hungry": 4694,
      "axe": 4695,
      "famous": 4696,
      "neglect": 4697,
      "trespass": 4698,
      "pronounce": 4699,
      "Return": 4700,
      "furnish": 4701,
      "wondrous": 4702,
      "appointed": 4703,
      "stretch": 4704,
      "repeal": 4705,
      "adversaries": 4706,
      "privilege": 4707,
      "clothes": 4708,
      "Laur": 4709,
      "opposite": 4710,
      "Conspirator": 4711,
      "Bushy": 4712,
      "Follow": 4713,
      "Happy": 4714,
      "youngest": 4715,
      "remorse": 4716,
      "mystery": 4717,
      "policy": 4718,
      "exercise": 4719,
      "Mariana": 4720,
      "ADRIAN": 4721,
      "CLEOMEN": 4722,
      "FROTH": 4723,
      "Lartius": 4724,
      "Villain": 4725,
      "Whether": 4726,
      "WILLOUGH": 4727,
      "thecary": 4728,
      "sepulch": 4729,
      "extremity": 4730,
      "Perdita": 4731,
      "CLEOMENES": 4732,
      "WILLOUGHBY": 4733,
      "AM": 4734,
      "Bur": 4735,
      "BAR": 4736,
      "Cast": 4737,
      "Ely": 4738,
      "Escal": 4739,
      "Fal": 4740,
      "Find": 4741,
      "Full": 4742,
      "Ga": 4743,
      "Gu": 4744,
      "Gree": 4745,
      "Hap": 4746,
      "Hang": 4747,
      "MOR": 4748,
      "Making": 4749,
      "NARD": 4750,
      "Oh": 4751,
      "Old": 4752,
      "Pre": 4753,
      "Que": 4754,
      "RUT": 4755,
      "Sur": 4756,
      "Send": 4757,
      "Val": 4758,
      "Vaugh": 4759,
      "Wh": 4760,
      "Wr": 4761,
      "Wed": 4762,
      "Wil": 4763,
      "Wife": 4764,
      "Woe": 4765,
      "afe": 4766,
      "ables": 4767,
      "bere": 4768,
      "bate": 4769,
      "bio": 4770,
      "bore": 4771,
      "cers": 4772,
      "dess": 4773,
      "date": 4774,
      "ev": 4775,
      "fed": 4776,
      "fil": 4777,
      "freed": 4778,
      "gid": 4779,
      "hare": 4780,
      "hrew": 4781,
      "honey": 4782,
      "ient": 4783,
      "ict": 4784,
      "iving": 4785,
      "iety": 4786,
      "lon": 4787,
      "lur": 4788,
      "lance": 4789,
      "lower": 4790,
      "lengthen": 4791,
      "mould": 4792,
      "mil": 4793,
      "mate": 4794,
      "mish": 4795,
      "nut": 4796,
      "nup": 4797,
      "nice": 4798,
      "numb": 4799,
      "pu": 4800,
      "pom": 4801,
      "pate": 4802,
      "page": 4803,
      "pised": 4804,
      "rouse": 4805,
      "smo": 4806,
      "sings": 4807,
      "swer": 4808,
      "sought": 4809,
      "skill": 4810,
      "shot": 4811,
      "vive": 4812,
      "ws": 4813,
      "wal": 4814,
      "ware": 4815,
      "yon": 4816,
      "thre": 4817,
      "thirst": 4818,
      "thrown": 4819,
      "thie": 4820,
      "thick": 4821,
      "thinking": 4822,
      "thumb": 4823,
      "inte": 4824,
      "anch": 4825,
      "ansport": 4826,
      "ising": 4827,
      "isted": 4828,
      "arrest": 4829,
      "stic": 4830,
      "stick": 4831,
      "stale": 4832,
      "lling": 4833,
      "metal": 4834,
      "toy": 4835,
      "tomorrow": 4836,
      "heat": 4837,
      "heap": 4838,
      "heels": 4839,
      "essed": 4840,
      "nobility": 4841,
      "sey": 4842,
      "secre": 4843,
      "hall": 4844,
      "hail": 4845,
      "haught": 4846,
      "hazard": 4847,
      "recomp": 4848,
      "iter": 4849,
      "itude": 4850,
      "itiff": 4851,
      "befall": 4852,
      "behavior": 4853,
      "leg": 4854,
      "cel": 4855,
      "forty": 4856,
      "chat": 4857,
      "charm": 4858,
      "roses": 4859,
      "noted": 4860,
      "lig": 4861,
      "lied": 4862,
      "liking": 4863,
      "livery": 4864,
      "likes": 4865,
      "keley": 4866,
      "rible": 4867,
      "thern": 4868,
      "etch": 4869,
      "using": 4870,
      "INE": 4871,
      "soil": 4872,
      "raven": 4873,
      "rapier": 4874,
      "dogs": 4875,
      "dozen": 4876,
      "unate": 4877,
      "unken": 4878,
      "unfold": 4879,
      "peer": 4880,
      "load": 4881,
      "fawn": 4882,
      "ckle": 4883,
      "tie": 4884,
      "amb": 4885,
      "amiss": 4886,
      "nel": 4887,
      "neat": 4888,
      "butt": 4889,
      "suing": 4890,
      "sult": 4891,
      "suits": 4892,
      "herd": 4893,
      "term": 4894,
      "conceive": 4895,
      "omit": 4896,
      "lap": 4897,
      "shallow": 4898,
      "upright": 4899,
      "share": 4900,
      "shook": 4901,
      "shines": 4902,
      "trunk": 4903,
      "transport": 4904,
      "goods": 4905,
      "board": 4906,
      "boast": 4907,
      "iling": 4908,
      "ilence": 4909,
      "caps": 4910,
      "capable": 4911,
      "caitiff": 4912,
      "Fortune": 4913,
      "sav": 4914,
      "sacri": 4915,
      "aken": 4916,
      "sirs": 4917,
      "thereby": 4918,
      "worm": 4919,
      "perni": 4920,
      "ately": 4921,
      "proved": 4922,
      "process": 4923,
      "grain": 4924,
      "somewhat": 4925,
      "discourse": 4926,
      "dismiss": 4927,
      "spread": 4928,
      "sweat": 4929,
      "nable": 4930,
      "descend": 4931,
      "bru": 4932,
      "brown": 4933,
      "telling": 4934,
      "breed": 4935,
      "bread": 4936,
      "immortal": 4937,
      "whereon": 4938,
      "counted": 4939,
      "counsell": 4940,
      "looked": 4941,
      "voli": 4942,
      "vocate": 4943,
      "affords": 4944,
      "abuse": 4945,
      "tshire": 4946,
      "Whereto": 4947,
      "Wherefore": 4948,
      "bert": 4949,
      "fearing": 4950,
      "headed": 4951,
      "flu": 4952,
      "flourish": 4953,
      "Anne": 4954,
      "coll": 4955,
      "merch": 4956,
      "warn": 4957,
      "gress": 4958,
      "scatter": 4959,
      "prime": 4960,
      "price": 4961,
      "courteous": 4962,
      "putting": 4963,
      "tricks": 4964,
      "beget": 4965,
      "childish": 4966,
      "Does": 4967,
      "train": 4968,
      "mightst": 4969,
      "lightning": 4970,
      "madness": 4971,
      "tending": 4972,
      "bestow": 4973,
      "Prove": 4974,
      "bands": 4975,
      "fardel": 4976,
      "forthwith": 4977,
      "backs": 4978,
      "earthly": 4979,
      "challen": 4980,
      "minded": 4981,
      "quired": 4982,
      "falling": 4983,
      "drunken": 4984,
      "doub": 4985,
      "closed": 4986,
      "royalty": 4987,
      "senses": 4988,
      "senseless": 4989,
      "pick": 4990,
      "vered": 4991,
      "grew": 4992,
      "greed": 4993,
      "monster": 4994,
      "strive": 4995,
      "cram": 4996,
      "waves": 4997,
      "meddle": 4998,
      "coronation": 4999
    },
    "merges": [
      [
        "t",
        "h"
      ],
      [
        "o",
        "u"
      ],
      [
        "e",
        "r"
      ],
      [
        "i",
        "n"
      ],
      [
        "a",
        "n"
      ],
      [
        "th",
        "e"
      ],
      [
        "o",
        "r"
      ],
      [
        "i",
        "s"
      ],
      [
        "e",
        "n"
      ],
      [
        "a",
        "r"
      ],
      [
        "a",
        "t"
      ],
      [
        "o",
        "n"
      ],
      [
        "s",
        "t"
      ],
      [
        "l",
        "l"
      ],
      [
        "m",
        "e"
      ],
      [
        "t",
        "o"
      ],
      [
        "an",
        "d"
      ],
      [
        "h",
        "e"
      ],
      [
        "y",
        "ou"
      ],
      [
        "e",
        "s"
      ],
      [
        "n",
        "o"
      ],
      [
        "s",
        "e"
      ],
      [
        "h",
        "a"
      ],
      [
        "r",
        "e"
      ],
      [
        "o",
        "f"
      ],
      [
        "v",
        "e"
      ],
      [
        "i",
        "t"
      ],
      [
        "in",
        "g"
      ],
      [
        "b",
        "e"
      ],
      [
        "l",
        "e"
      ],
      [
        "w",
        "i"
      ],
      [
        "m",
        "y"
      ],
      [
        "h",
        "i"
      ],
      [
        "o",
        "w"
      ],
      [
        "c",
        "e"
      ],
      [
        "f",
        "or"
      ],
      [
        "a",
        "y"
      ],
      [
        "a",
        "s"
      ],
      [
        "c",
        "h"
      ],
      [
        "n",
        "d"
      ],
      [
        "er",
        "e"
      ],
      [
        "l",
        "d"
      ],
      [
        "i",
        "r"
      ],
      [
        "e",
        "d"
      ],
      [
        "u",
        "t"
      ],
      [
        "r",
        "o"
      ],
      [
        "no",
        "t"
      ],
      [
        "l",
        "i"
      ],
      [
        "d",
        "e"
      ],
      [
        "w",
        "e"
      ],
      [
        "h",
        "at"
      ],
      [
        "th",
        "at"
      ],
      [
        "g",
        "h"
      ],
      [
        "A",
        "nd"
      ],
      [
        "k",
        "e"
      ],
      [
        "o",
        "o"
      ],
      [
        "ou",
        "r"
      ],
      [
        "wi",
        "th"
      ],
      [
        "o",
        "me"
      ],
      [
        "en",
        "t"
      ],
      [
        "h",
        "is"
      ],
      [
        "r",
        "i"
      ],
      [
        "you",
        "r"
      ],
      [
        "th",
        "ou"
      ],
      [
        "th",
        "er"
      ],
      [
        "a",
        "d"
      ],
      [
        "a",
        "l"
      ],
      [
        "e",
        "t"
      ],
      [
        "a",
        "ll"
      ],
      [
        "gh",
        "t"
      ],
      [
        "E",
        "N"
      ],
      [
        "u",
        "r"
      ],
      [
        "u",
        "s"
      ],
      [
        "ha",
        "ve"
      ],
      [
        "hi",
        "m"
      ],
      [
        "I",
        "N"
      ],
      [
        "l",
        "y"
      ],
      [
        "s",
        "o"
      ],
      [
        "r",
        "a"
      ],
      [
        "th",
        "is"
      ],
      [
        "I",
        "O"
      ],
      [
        "or",
        "d"
      ],
      [
        "d",
        "o"
      ],
      [
        "u",
        "n"
      ],
      [
        "h",
        "o"
      ],
      [
        "m",
        "a"
      ],
      [
        "es",
        "s"
      ],
      [
        "p",
        "e"
      ],
      [
        "f",
        "e"
      ],
      [
        "A",
        "R"
      ],
      [
        "ou",
        "ld"
      ],
      [
        "ar",
        "e"
      ],
      [
        "l",
        "o"
      ],
      [
        "h",
        "ere"
      ],
      [
        "oo",
        "d"
      ],
      [
        "i",
        "d"
      ],
      [
        "th",
        "y"
      ],
      [
        "v",
        "er"
      ],
      [
        "f",
        "a"
      ],
      [
        "c",
        "k"
      ],
      [
        "on",
        "e"
      ],
      [
        "m",
        "an"
      ],
      [
        "t",
        "i"
      ],
      [
        "T",
        "he"
      ],
      [
        "s",
        "ha"
      ],
      [
        "no",
        "w"
      ],
      [
        "a",
        "m"
      ],
      [
        "wi",
        "ll"
      ],
      [
        "n",
        "e"
      ],
      [
        "g",
        "e"
      ],
      [
        "a",
        "in"
      ],
      [
        "b",
        "ut"
      ],
      [
        "s",
        "u"
      ],
      [
        "ar",
        "d"
      ],
      [
        "h",
        "er"
      ],
      [
        "U",
        "S"
      ],
      [
        "t",
        "er"
      ],
      [
        "c",
        "on"
      ],
      [
        "p",
        "r"
      ],
      [
        "T",
        "h"
      ],
      [
        "T",
        "o"
      ],
      [
        "en",
        "d"
      ],
      [
        "b",
        "y"
      ],
      [
        "the",
        "e"
      ],
      [
        "u",
        "e"
      ],
      [
        "o",
        "m"
      ],
      [
        "l",
        "a"
      ],
      [
        "sha",
        "ll"
      ],
      [
        "ar",
        "t"
      ],
      [
        "m",
        "or"
      ],
      [
        "u",
        "p"
      ],
      [
        "U",
        "C"
      ],
      [
        "s",
        "h"
      ],
      [
        "c",
        "ome"
      ],
      [
        "p",
        "o"
      ],
      [
        "IN",
        "G"
      ],
      [
        "ro",
        "m"
      ],
      [
        "ow",
        "n"
      ],
      [
        "A",
        "N"
      ],
      [
        "u",
        "st"
      ],
      [
        "T",
        "hat"
      ],
      [
        "t",
        "a"
      ],
      [
        "t",
        "r"
      ],
      [
        "w",
        "hat"
      ],
      [
        "E",
        "R"
      ],
      [
        "O",
        "R"
      ],
      [
        "ou",
        "s"
      ],
      [
        "m",
        "o"
      ],
      [
        "se",
        "l"
      ],
      [
        "E",
        "T"
      ],
      [
        "t",
        "e"
      ],
      [
        "E",
        "S"
      ],
      [
        "g",
        "o"
      ],
      [
        "g",
        "ood"
      ],
      [
        "i",
        "f"
      ],
      [
        "i",
        "ll"
      ],
      [
        "B",
        "ut"
      ],
      [
        "in",
        "e"
      ],
      [
        "a",
        "th"
      ],
      [
        "h",
        "en"
      ],
      [
        "b",
        "le"
      ],
      [
        "i",
        "ght"
      ],
      [
        "l",
        "ord"
      ],
      [
        "i",
        "on"
      ],
      [
        "hi",
        "ch"
      ],
      [
        "k",
        "ing"
      ],
      [
        "W",
        "hat"
      ],
      [
        "w",
        "as"
      ],
      [
        "b",
        "o"
      ],
      [
        "i",
        "l"
      ],
      [
        "an",
        "t"
      ],
      [
        "K",
        "ING"
      ],
      [
        "v",
        "en"
      ],
      [
        "s",
        "he"
      ],
      [
        "c",
        "a"
      ],
      [
        "u",
        "l"
      ],
      [
        "f",
        "rom"
      ],
      [
        "b",
        "l"
      ],
      [
        "on",
        "g"
      ],
      [
        "mor",
        "e"
      ],
      [
        "F",
        "or"
      ],
      [
        "we",
        "ll"
      ],
      [
        "s",
        "a"
      ],
      [
        "the",
        "m"
      ],
      [
        "I",
        "C"
      ],
      [
        "a",
        "k"
      ],
      [
        "s",
        "ir"
      ],
      [
        "sel",
        "f"
      ],
      [
        "in",
        "d"
      ],
      [
        "w",
        "ould"
      ],
      [
        "th",
        "ere"
      ],
      [
        "w",
        "or"
      ],
      [
        "lo",
        "ve"
      ],
      [
        "c",
        "an"
      ],
      [
        "k",
        "now"
      ],
      [
        "p",
        "er"
      ],
      [
        "c",
        "t"
      ],
      [
        "ou",
        "t"
      ],
      [
        "i",
        "ve"
      ],
      [
        "E",
        "L"
      ],
      [
        "at",
        "e"
      ],
      [
        "c",
        "om"
      ],
      [
        "s",
        "ay"
      ],
      [
        "the",
        "n"
      ],
      [
        "se",
        "e"
      ],
      [
        "I",
        "US"
      ],
      [
        "le",
        "t"
      ],
      [
        "AR",
        "D"
      ],
      [
        "the",
        "ir"
      ],
      [
        "M",
        "y"
      ],
      [
        "d",
        "i"
      ],
      [
        "th",
        "an"
      ],
      [
        "c",
        "i"
      ],
      [
        "r",
        "y"
      ],
      [
        "-",
        "-"
      ],
      [
        "the",
        "y"
      ],
      [
        "for",
        "e"
      ],
      [
        "en",
        "ce"
      ],
      [
        "a",
        "g"
      ],
      [
        "e",
        "p"
      ],
      [
        "e",
        "ar"
      ],
      [
        "li",
        "ke"
      ],
      [
        "s",
        "pe"
      ],
      [
        "G",
        "o"
      ],
      [
        "er",
        "s"
      ],
      [
        "h",
        "y"
      ],
      [
        "m",
        "ay"
      ],
      [
        "L",
        "O"
      ],
      [
        "b",
        "ro"
      ],
      [
        "u",
        "m"
      ],
      [
        "w",
        "ere"
      ],
      [
        "w",
        "ay"
      ],
      [
        "A",
        "s"
      ],
      [
        "p",
        "ro"
      ],
      [
        "a",
        "st"
      ],
      [
        "W",
        "e"
      ],
      [
        "v",
        "es"
      ],
      [
        "is",
        "h"
      ],
      [
        "in",
        "k"
      ],
      [
        "K",
        "E"
      ],
      [
        "ti",
        "me"
      ],
      [
        "ha",
        "th"
      ],
      [
        "I",
        "I"
      ],
      [
        "q",
        "u"
      ],
      [
        "N",
        "o"
      ],
      [
        "u",
        "re"
      ],
      [
        "ir",
        "st"
      ],
      [
        "H",
        "e"
      ],
      [
        "ma",
        "ke"
      ],
      [
        "o",
        "l"
      ],
      [
        "p",
        "le"
      ],
      [
        "Y",
        "ou"
      ],
      [
        "w",
        "ho"
      ],
      [
        "th",
        "ing"
      ],
      [
        "r",
        "ow"
      ],
      [
        "m",
        "ust"
      ],
      [
        "g",
        "ra"
      ],
      [
        "ou",
        "nd"
      ],
      [
        "i",
        "th"
      ],
      [
        "a",
        "p"
      ],
      [
        "a",
        "ve"
      ],
      [
        "s",
        "ome"
      ],
      [
        "oo",
        "k"
      ],
      [
        "sh",
        "ould"
      ],
      [
        "O",
        "L"
      ],
      [
        "fa",
        "ther"
      ],
      [
        "f",
        "i"
      ],
      [
        "L",
        "A"
      ],
      [
        "R",
        "O"
      ],
      [
        "T",
        "IO"
      ],
      [
        "u",
        "se"
      ],
      [
        "it",
        "y"
      ],
      [
        "to",
        "o"
      ],
      [
        "ha",
        "d"
      ],
      [
        "up",
        "on"
      ],
      [
        "s",
        "on"
      ],
      [
        "d",
        "id"
      ],
      [
        "C",
        "A"
      ],
      [
        "d",
        "ay"
      ],
      [
        "i",
        "g"
      ],
      [
        "an",
        "ce"
      ],
      [
        "w",
        "ard"
      ],
      [
        "O",
        "N"
      ],
      [
        "d",
        "is"
      ],
      [
        "h",
        "ow"
      ],
      [
        "w",
        "o"
      ],
      [
        "w",
        "hich"
      ],
      [
        "de",
        "ath"
      ],
      [
        "ou",
        "n"
      ],
      [
        "re",
        "at"
      ],
      [
        "I",
        "S"
      ],
      [
        "w",
        "ord"
      ],
      [
        "f",
        "ri"
      ],
      [
        "I",
        "f"
      ],
      [
        "s",
        "p"
      ],
      [
        "w",
        "hen"
      ],
      [
        "e",
        "st"
      ],
      [
        "m",
        "en"
      ],
      [
        "spe",
        "ak"
      ],
      [
        "ent",
        "le"
      ],
      [
        "I",
        "n"
      ],
      [
        "he",
        "art"
      ],
      [
        "IC",
        "H"
      ],
      [
        "ag",
        "ain"
      ],
      [
        "R",
        "ICH"
      ],
      [
        "f",
        "ul"
      ],
      [
        "v",
        "i"
      ],
      [
        "D",
        "U"
      ],
      [
        "DU",
        "KE"
      ],
      [
        "h",
        "and"
      ],
      [
        "y",
        "et"
      ],
      [
        "o",
        "ld"
      ],
      [
        "m",
        "ar"
      ],
      [
        "e",
        "l"
      ],
      [
        "Th",
        "ou"
      ],
      [
        "U",
        "L"
      ],
      [
        "m",
        "ine"
      ],
      [
        "ver",
        "y"
      ],
      [
        "th",
        "ink"
      ],
      [
        "RICH",
        "ARD"
      ],
      [
        "EN",
        "TIO"
      ],
      [
        "ta",
        "ke"
      ],
      [
        "W",
        "hich"
      ],
      [
        "p",
        "l"
      ],
      [
        "s",
        "i"
      ],
      [
        "s",
        "we"
      ],
      [
        "a",
        "c"
      ],
      [
        "Go",
        "d"
      ],
      [
        "he",
        "ar"
      ],
      [
        "B",
        "e"
      ],
      [
        "W",
        "ith"
      ],
      [
        "in",
        "ce"
      ],
      [
        "IN",
        "C"
      ],
      [
        "st",
        "r"
      ],
      [
        "ig",
        "n"
      ],
      [
        "W",
        "hy"
      ],
      [
        "g",
        "ive"
      ],
      [
        "O",
        "f"
      ],
      [
        "n",
        "a"
      ],
      [
        "su",
        "ch"
      ],
      [
        "F",
        "irst"
      ],
      [
        "l",
        "and"
      ],
      [
        "an",
        "g"
      ],
      [
        "A",
        "B"
      ],
      [
        "n",
        "ess"
      ],
      [
        "u",
        "ch"
      ],
      [
        "mo",
        "st"
      ],
      [
        "bl",
        "ood"
      ],
      [
        "d",
        "es"
      ],
      [
        "e",
        "x"
      ],
      [
        "st",
        "er"
      ],
      [
        "bro",
        "ther"
      ],
      [
        "b",
        "r"
      ],
      [
        "the",
        "se"
      ],
      [
        "he",
        "a"
      ],
      [
        "te",
        "ll"
      ],
      [
        "t",
        "is"
      ],
      [
        "an",
        "y"
      ],
      [
        "b",
        "a"
      ],
      [
        "e",
        "y"
      ],
      [
        "U",
        "E"
      ],
      [
        "is",
        "e"
      ],
      [
        "on",
        "our"
      ],
      [
        "b",
        "re"
      ],
      [
        "o",
        "ther"
      ],
      [
        "i",
        "m"
      ],
      [
        "w",
        "here"
      ],
      [
        "H",
        "ow"
      ],
      [
        "q",
        "ue"
      ],
      [
        "ll",
        "ow"
      ],
      [
        "C",
        "ome"
      ],
      [
        "l",
        "ess"
      ],
      [
        "t",
        "y"
      ],
      [
        "ar",
        "m"
      ],
      [
        "li",
        "fe"
      ],
      [
        "T",
        "his"
      ],
      [
        "T",
        "ER"
      ],
      [
        "c",
        "oun"
      ],
      [
        "l",
        "ook"
      ],
      [
        "ne",
        "w"
      ],
      [
        "S",
        "o"
      ],
      [
        "or",
        "t"
      ],
      [
        "UC",
        "H"
      ],
      [
        "W",
        "ho"
      ],
      [
        "fri",
        "end"
      ],
      [
        "g",
        "entle"
      ],
      [
        "ou",
        "l"
      ],
      [
        "G",
        "LO"
      ],
      [
        "u",
        "ght"
      ],
      [
        "v",
        "o"
      ],
      [
        "UC",
        "ES"
      ],
      [
        "GLO",
        "UCES"
      ],
      [
        "GLOUCES",
        "TER"
      ],
      [
        "c",
        "hi"
      ],
      [
        "ar",
        "s"
      ],
      [
        "a",
        "f"
      ],
      [
        "m",
        "is"
      ],
      [
        "v",
        "ing"
      ],
      [
        "ha",
        "st"
      ],
      [
        "ad",
        "y"
      ],
      [
        "L",
        "ord"
      ],
      [
        "a",
        "b"
      ],
      [
        "ur",
        "se"
      ],
      [
        "t",
        "s"
      ],
      [
        "R",
        "ome"
      ],
      [
        "R",
        "Y"
      ],
      [
        "n",
        "ight"
      ],
      [
        "r",
        "own"
      ],
      [
        "of",
        "f"
      ],
      [
        "fa",
        "ir"
      ],
      [
        "ma",
        "de"
      ],
      [
        "a",
        "ge"
      ],
      [
        "L",
        "E"
      ],
      [
        "Q",
        "UE"
      ],
      [
        "V",
        "INC"
      ],
      [
        "QUE",
        "EN"
      ],
      [
        "VINC",
        "ENTIO"
      ],
      [
        "h",
        "onour"
      ],
      [
        "O",
        "F"
      ],
      [
        "S",
        "e"
      ],
      [
        "m",
        "uch"
      ],
      [
        "an",
        "s"
      ],
      [
        "ti",
        "on"
      ],
      [
        "on",
        "d"
      ],
      [
        "I",
        "s"
      ],
      [
        "W",
        "here"
      ],
      [
        "li",
        "e"
      ],
      [
        "ur",
        "n"
      ],
      [
        "U",
        "M"
      ],
      [
        "L",
        "AN"
      ],
      [
        "st",
        "and"
      ],
      [
        "M",
        "ar"
      ],
      [
        "p",
        "re"
      ],
      [
        "H",
        "EN"
      ],
      [
        "con",
        "d"
      ],
      [
        "N",
        "ow"
      ],
      [
        "c",
        "he"
      ],
      [
        "na",
        "me"
      ],
      [
        "t",
        "le"
      ],
      [
        "e",
        "m"
      ],
      [
        "e",
        "f"
      ],
      [
        "HEN",
        "RY"
      ],
      [
        "n",
        "g"
      ],
      [
        "b",
        "er"
      ],
      [
        "p",
        "art"
      ],
      [
        "ne",
        "ver"
      ],
      [
        "fe",
        "ar"
      ],
      [
        "i",
        "o"
      ],
      [
        "Y",
        "our"
      ],
      [
        "c",
        "es"
      ],
      [
        "i",
        "es"
      ],
      [
        "l",
        "t"
      ],
      [
        "li",
        "ve"
      ],
      [
        "ow",
        "er"
      ],
      [
        "j",
        "o"
      ],
      [
        "s",
        "er"
      ],
      [
        "u",
        "ke"
      ],
      [
        "I",
        "t"
      ],
      [
        "c",
        "all"
      ],
      [
        "g",
        "reat"
      ],
      [
        "as",
        "s"
      ],
      [
        "Y",
        "OR"
      ],
      [
        "f",
        "o"
      ],
      [
        "he",
        "ad"
      ],
      [
        "YOR",
        "K"
      ],
      [
        "re",
        "e"
      ],
      [
        "m",
        "ent"
      ],
      [
        "u",
        "nd"
      ],
      [
        "O",
        "r"
      ],
      [
        "at",
        "ion"
      ],
      [
        "IN",
        "IUS"
      ],
      [
        "e",
        "ver"
      ],
      [
        "pr",
        "ay"
      ],
      [
        "can",
        "not"
      ],
      [
        "re",
        "d"
      ],
      [
        "tr",
        "ue"
      ],
      [
        "hea",
        "ven"
      ],
      [
        "P",
        "ET"
      ],
      [
        "a",
        "se"
      ],
      [
        "no",
        "ble"
      ],
      [
        "f",
        "l"
      ],
      [
        "p",
        "a"
      ],
      [
        "be",
        "en"
      ],
      [
        "swe",
        "et"
      ],
      [
        "for",
        "t"
      ],
      [
        "A",
        "n"
      ],
      [
        "D",
        "W"
      ],
      [
        "E",
        "DW"
      ],
      [
        "c",
        "o"
      ],
      [
        "EDW",
        "ARD"
      ],
      [
        "G",
        "R"
      ],
      [
        "d",
        "one"
      ],
      [
        "m",
        "er"
      ],
      [
        "be",
        "t"
      ],
      [
        ",",
        "--"
      ],
      [
        "T",
        "H"
      ],
      [
        "do",
        "th"
      ],
      [
        "i",
        "z"
      ],
      [
        "n",
        "or"
      ],
      [
        "ou",
        "gh"
      ],
      [
        "L",
        "UC"
      ],
      [
        "M",
        "EN"
      ],
      [
        "p",
        "t"
      ],
      [
        "r",
        "es"
      ],
      [
        "A",
        "y"
      ],
      [
        "d",
        "a"
      ],
      [
        "p",
        "p"
      ],
      [
        "u",
        "ll"
      ],
      [
        "w",
        "ar"
      ],
      [
        "ou",
        "se"
      ],
      [
        "T",
        "here"
      ],
      [
        "i",
        "e"
      ],
      [
        "com",
        "m"
      ],
      [
        "g",
        "r"
      ],
      [
        "in",
        "t"
      ],
      [
        "W",
        "hen"
      ],
      [
        "re",
        "st"
      ],
      [
        "E",
        "d"
      ],
      [
        "w",
        "r"
      ],
      [
        "be",
        "ar"
      ],
      [
        "M",
        "E"
      ],
      [
        "U",
        "T"
      ],
      [
        "gra",
        "ce"
      ],
      [
        "s",
        "oul"
      ],
      [
        "be",
        "fore"
      ],
      [
        "RO",
        "ME"
      ],
      [
        "Ed",
        "ward"
      ],
      [
        "ROME",
        "O"
      ],
      [
        "B",
        "y"
      ],
      [
        "s",
        "c"
      ],
      [
        "s",
        "s"
      ],
      [
        "EN",
        "IUS"
      ],
      [
        "bo",
        "th"
      ],
      [
        "wor",
        "ld"
      ],
      [
        "MEN",
        "ENIUS"
      ],
      [
        "R",
        "i"
      ],
      [
        "que",
        "en"
      ],
      [
        "a",
        "ce"
      ],
      [
        "H",
        "ere"
      ],
      [
        "L",
        "et"
      ],
      [
        "Th",
        "en"
      ],
      [
        "come",
        "s"
      ],
      [
        "ught",
        "er"
      ],
      [
        "R",
        "UCH"
      ],
      [
        "d",
        "own"
      ],
      [
        "p",
        "ri"
      ],
      [
        "or",
        "n"
      ],
      [
        "de",
        "ad"
      ],
      [
        "PET",
        "RUCH"
      ],
      [
        "PETRUCH",
        "IO"
      ],
      [
        "O",
        "M"
      ],
      [
        "ing",
        "s"
      ],
      [
        "T",
        "ES"
      ],
      [
        "l",
        "ong"
      ],
      [
        "ve",
        "d"
      ],
      [
        "it",
        "e"
      ],
      [
        "pr",
        "es"
      ],
      [
        "a",
        "ke"
      ],
      [
        "i",
        "ce"
      ],
      [
        "be",
        "ing"
      ],
      [
        "wi",
        "ck"
      ],
      [
        "Th",
        "an"
      ],
      [
        "r",
        "u"
      ],
      [
        "le",
        "ave"
      ],
      [
        "my",
        "self"
      ],
      [
        "ho",
        "ld"
      ],
      [
        "mo",
        "ther"
      ],
      [
        "C",
        "l"
      ],
      [
        "H",
        "A"
      ],
      [
        "M",
        "AR"
      ],
      [
        "or",
        "e"
      ],
      [
        "se",
        "t"
      ],
      [
        "c",
        "our"
      ],
      [
        "h",
        "ouse"
      ],
      [
        "p",
        "ut"
      ],
      [
        "th",
        "us"
      ],
      [
        "ca",
        "use"
      ],
      [
        "C",
        "OR"
      ],
      [
        "I",
        "Z"
      ],
      [
        "o",
        "p"
      ],
      [
        "re",
        "t"
      ],
      [
        "IO",
        "LAN"
      ],
      [
        "COR",
        "IOLAN"
      ],
      [
        "CORIOLAN",
        "US"
      ],
      [
        "N",
        "or"
      ],
      [
        "t",
        "ri"
      ],
      [
        "wi",
        "fe"
      ],
      [
        "Se",
        "cond"
      ],
      [
        "d",
        "er"
      ],
      [
        "u",
        "ck"
      ],
      [
        "w",
        "hi"
      ],
      [
        "be",
        "g"
      ],
      [
        "ey",
        "es"
      ],
      [
        "de",
        "ed"
      ],
      [
        "thou",
        "ght"
      ],
      [
        "B",
        "A"
      ],
      [
        "c",
        "l"
      ],
      [
        "Ri",
        "ch"
      ],
      [
        "d",
        "y"
      ],
      [
        "chi",
        "ld"
      ],
      [
        "IN",
        "A"
      ],
      [
        "po",
        "or"
      ],
      [
        "D",
        "o"
      ],
      [
        "S",
        "he"
      ],
      [
        "it",
        "iz"
      ],
      [
        "di",
        "e"
      ],
      [
        "itiz",
        "en"
      ],
      [
        "f",
        "oo"
      ],
      [
        "t",
        "ra"
      ],
      [
        "le",
        "d"
      ],
      [
        "a",
        "way"
      ],
      [
        "I",
        "V"
      ],
      [
        "ri",
        "ght"
      ],
      [
        "friend",
        "s"
      ],
      [
        "d",
        "s"
      ],
      [
        "II",
        "I"
      ],
      [
        "S",
        "ir"
      ],
      [
        "m",
        "ight"
      ],
      [
        "c",
        "rown"
      ],
      [
        "k",
        "s"
      ],
      [
        "p",
        "la"
      ],
      [
        "at",
        "ch"
      ],
      [
        "at",
        "ter"
      ],
      [
        "st",
        "ay"
      ],
      [
        "li",
        "ght"
      ],
      [
        "b",
        "id"
      ],
      [
        "t",
        "en"
      ],
      [
        "man",
        "y"
      ],
      [
        "W",
        "ar"
      ],
      [
        "f",
        "t"
      ],
      [
        "in",
        "s"
      ],
      [
        "War",
        "wick"
      ],
      [
        "a",
        "ch"
      ],
      [
        "g",
        "ri"
      ],
      [
        "l",
        "it"
      ],
      [
        "H",
        "is"
      ],
      [
        "t",
        "re"
      ],
      [
        "T",
        "is"
      ],
      [
        "p",
        "s"
      ],
      [
        "is",
        "on"
      ],
      [
        "po",
        "se"
      ],
      [
        "EL",
        "LA"
      ],
      [
        "ci",
        "ous"
      ],
      [
        "IS",
        "AB"
      ],
      [
        "ISAB",
        "ELLA"
      ],
      [
        "m",
        "i"
      ],
      [
        "an",
        "ge"
      ],
      [
        "no",
        "thing"
      ],
      [
        "Rome",
        "o"
      ],
      [
        "da",
        "ughter"
      ],
      [
        "R",
        "AN"
      ],
      [
        "b",
        "ra"
      ],
      [
        "g",
        "one"
      ],
      [
        "k",
        "ind"
      ],
      [
        "t",
        "al"
      ],
      [
        "t",
        "ong"
      ],
      [
        "fa",
        "ce"
      ],
      [
        "We",
        "ll"
      ],
      [
        "m",
        "ad"
      ],
      [
        "bet",
        "ter"
      ],
      [
        "I",
        "ET"
      ],
      [
        "J",
        "UL"
      ],
      [
        "k",
        "es"
      ],
      [
        "o",
        "se"
      ],
      [
        "p",
        "ar"
      ],
      [
        "for",
        "d"
      ],
      [
        "ti",
        "ll"
      ],
      [
        "ON",
        "TES"
      ],
      [
        "LE",
        "ONTES"
      ],
      [
        "JUL",
        "IET"
      ],
      [
        "N",
        "ay"
      ],
      [
        "V",
        "I"
      ],
      [
        "g",
        "u"
      ],
      [
        "en",
        "g"
      ],
      [
        "thou",
        "gh"
      ],
      [
        "pr",
        "ince"
      ],
      [
        "word",
        "s"
      ],
      [
        "I",
        "L"
      ],
      [
        "t",
        "ed"
      ],
      [
        "D",
        "Y"
      ],
      [
        "a",
        "ble"
      ],
      [
        "or",
        "s"
      ],
      [
        "un",
        "e"
      ],
      [
        "ear",
        "s"
      ],
      [
        "LA",
        "DY"
      ],
      [
        "C",
        "E"
      ],
      [
        "S",
        "T"
      ],
      [
        "V",
        "OL"
      ],
      [
        "w",
        "er"
      ],
      [
        "EN",
        "CE"
      ],
      [
        "sh",
        "ow"
      ],
      [
        "B",
        "R"
      ],
      [
        "T",
        "A"
      ],
      [
        "b",
        "an"
      ],
      [
        "i",
        "ther"
      ],
      [
        "t",
        "end"
      ],
      [
        "new",
        "s"
      ],
      [
        "C",
        "L"
      ],
      [
        "C",
        "itizen"
      ],
      [
        "S",
        "er"
      ],
      [
        "i",
        "c"
      ],
      [
        "s",
        "ent"
      ],
      [
        "be",
        "st"
      ],
      [
        "ur",
        "der"
      ],
      [
        "again",
        "st"
      ],
      [
        "P",
        "ro"
      ],
      [
        "th",
        "ose"
      ],
      [
        "jo",
        "y"
      ],
      [
        "S",
        "IC"
      ],
      [
        "b",
        "and"
      ],
      [
        "h",
        "our"
      ],
      [
        "s",
        "le"
      ],
      [
        "hen",
        "ce"
      ],
      [
        "lord",
        "s"
      ],
      [
        "lit",
        "tle"
      ],
      [
        "SIC",
        "INIUS"
      ],
      [
        "f",
        "ar"
      ],
      [
        "t",
        "ent"
      ],
      [
        "S",
        "ha"
      ],
      [
        "c",
        "y"
      ],
      [
        "c",
        "tion"
      ],
      [
        "ard",
        "on"
      ],
      [
        "U",
        "n"
      ],
      [
        "p",
        "ur"
      ],
      [
        "ke",
        "ep"
      ],
      [
        "t",
        "ain"
      ],
      [
        "t",
        "wo"
      ],
      [
        "st",
        "ill"
      ],
      [
        "he",
        "l"
      ],
      [
        "ch",
        "ar"
      ],
      [
        "de",
        "ar"
      ],
      [
        "la",
        "w"
      ],
      [
        "GR",
        "E"
      ],
      [
        "d",
        "en"
      ],
      [
        "p",
        "ower"
      ],
      [
        "me",
        "an"
      ],
      [
        "for",
        "th"
      ],
      [
        "ro",
        "y"
      ],
      [
        "him",
        "self"
      ],
      [
        "No",
        "t"
      ],
      [
        "f",
        "ull"
      ],
      [
        "Th",
        "y"
      ],
      [
        "ba",
        "ck"
      ],
      [
        "LUC",
        "IO"
      ],
      [
        "it",
        "s"
      ],
      [
        "un",
        "to"
      ],
      [
        "su",
        "b"
      ],
      [
        "Rich",
        "ard"
      ],
      [
        "H",
        "ave"
      ],
      [
        "e",
        "ch"
      ],
      [
        "pe",
        "ace"
      ],
      [
        "there",
        "fore"
      ],
      [
        "W",
        "ill"
      ],
      [
        "b",
        "es"
      ],
      [
        "f",
        "irst"
      ],
      [
        "r",
        "en"
      ],
      [
        "in",
        "ess"
      ],
      [
        "el",
        "se"
      ],
      [
        "tong",
        "ue"
      ],
      [
        "Y",
        "or"
      ],
      [
        "c",
        "ould"
      ],
      [
        "d",
        "uke"
      ],
      [
        "hi",
        "gh"
      ],
      [
        "as",
        "on"
      ],
      [
        "ri",
        "ed"
      ],
      [
        "ho",
        "pe"
      ],
      [
        "c",
        "ut"
      ],
      [
        "h",
        "us"
      ],
      [
        "ou",
        "ght"
      ],
      [
        "ar",
        "k"
      ],
      [
        "ne",
        "ed"
      ],
      [
        "con",
        "f"
      ],
      [
        "f",
        "ind"
      ],
      [
        "l",
        "ady"
      ],
      [
        "n",
        "at"
      ],
      [
        "th",
        "ine"
      ],
      [
        "you",
        "ng"
      ],
      [
        "ET",
        "H"
      ],
      [
        "EL",
        "IZ"
      ],
      [
        "ear",
        "th"
      ],
      [
        "AB",
        "ETH"
      ],
      [
        "und",
        "er"
      ],
      [
        "Yor",
        "k"
      ],
      [
        "ELIZ",
        "ABETH"
      ],
      [
        "G",
        "ood"
      ],
      [
        "c",
        "ha"
      ],
      [
        "d",
        "re"
      ],
      [
        "th",
        "r"
      ],
      [
        "ca",
        "me"
      ],
      [
        "I",
        "AN"
      ],
      [
        "g",
        "et"
      ],
      [
        "h",
        "ome"
      ],
      [
        "j",
        "e"
      ],
      [
        "j",
        "ust"
      ],
      [
        "m",
        "ind"
      ],
      [
        "o",
        "ple"
      ],
      [
        "r",
        "an"
      ],
      [
        "ma",
        "ster"
      ],
      [
        "H",
        "en"
      ],
      [
        "Y",
        "et"
      ],
      [
        "on",
        "ce"
      ],
      [
        "pe",
        "ople"
      ],
      [
        "hus",
        "band"
      ],
      [
        "Hen",
        "ry"
      ],
      [
        "I",
        "A"
      ],
      [
        "p",
        "ass"
      ],
      [
        "are",
        "well"
      ],
      [
        "see",
        "m"
      ],
      [
        "pla",
        "ce"
      ],
      [
        "P",
        "ER"
      ],
      [
        "l",
        "ay"
      ],
      [
        "s",
        "or"
      ],
      [
        "ha",
        "pp"
      ],
      [
        "qu",
        "i"
      ],
      [
        "af",
        "ter"
      ],
      [
        "A",
        "ll"
      ],
      [
        "W",
        "AR"
      ],
      [
        "W",
        "IC"
      ],
      [
        "c",
        "le"
      ],
      [
        "f",
        "all"
      ],
      [
        "st",
        "e"
      ],
      [
        "Sha",
        "ll"
      ],
      [
        "WAR",
        "WIC"
      ],
      [
        "WARWIC",
        "K"
      ],
      [
        "v",
        "ant"
      ],
      [
        "w",
        "hy"
      ],
      [
        "is",
        "ter"
      ],
      [
        "be",
        "d"
      ],
      [
        "we",
        "l"
      ],
      [
        "fe",
        "llow"
      ],
      [
        "fo",
        "llow"
      ],
      [
        "N",
        "urse"
      ],
      [
        "la",
        "st"
      ],
      [
        "n",
        "one"
      ],
      [
        "The",
        "y"
      ],
      [
        "ple",
        "ase"
      ],
      [
        "HA",
        "M"
      ],
      [
        "P",
        "UL"
      ],
      [
        "d",
        "r"
      ],
      [
        "g",
        "i"
      ],
      [
        "h",
        "or"
      ],
      [
        "p",
        "ardon"
      ],
      [
        "re",
        "p"
      ],
      [
        "hi",
        "ther"
      ],
      [
        "mor",
        "row"
      ],
      [
        "tr",
        "u"
      ],
      [
        "sa",
        "id"
      ],
      [
        "CA",
        "PUL"
      ],
      [
        "CAPUL",
        "ET"
      ],
      [
        "b",
        "u"
      ],
      [
        "d",
        "ou"
      ],
      [
        "e",
        "very"
      ],
      [
        "g",
        "l"
      ],
      [
        "ou",
        "d"
      ],
      [
        "hand",
        "s"
      ],
      [
        "br",
        "ing"
      ],
      [
        "M",
        "IO"
      ],
      [
        "g",
        "ue"
      ],
      [
        "k",
        "ill"
      ],
      [
        "p",
        "at"
      ],
      [
        "ous",
        "in"
      ],
      [
        "bo",
        "y"
      ],
      [
        "wo",
        "man"
      ],
      [
        "s",
        "hi"
      ],
      [
        "sha",
        "me"
      ],
      [
        "tr",
        "y"
      ],
      [
        "B",
        "UC"
      ],
      [
        "c",
        "ent"
      ],
      [
        "m",
        "ber"
      ],
      [
        "he",
        "ard"
      ],
      [
        "te",
        "m"
      ],
      [
        "KING",
        "HAM"
      ],
      [
        "UT",
        "US"
      ],
      [
        "BR",
        "UTUS"
      ],
      [
        "BUC",
        "KINGHAM"
      ],
      [
        "B",
        "OL"
      ],
      [
        "B",
        "RO"
      ],
      [
        "F",
        "rom"
      ],
      [
        "T",
        "RAN"
      ],
      [
        "b",
        "us"
      ],
      [
        "c",
        "lo"
      ],
      [
        "d",
        "ra"
      ],
      [
        "f",
        "f"
      ],
      [
        "i",
        "us"
      ],
      [
        "j",
        "est"
      ],
      [
        "at",
        "es"
      ],
      [
        "ING",
        "BRO"
      ],
      [
        "ES",
        "S"
      ],
      [
        "LA",
        "U"
      ],
      [
        "BOL",
        "INGBRO"
      ],
      [
        "TRAN",
        "IO"
      ],
      [
        "BOLINGBRO",
        "KE"
      ],
      [
        "M",
        "IL"
      ],
      [
        "c",
        "ar"
      ],
      [
        "s",
        "and"
      ],
      [
        "ut",
        "y"
      ],
      [
        "te",
        "ars"
      ],
      [
        "who",
        "se"
      ],
      [
        "vo",
        "st"
      ],
      [
        "pres",
        "ent"
      ],
      [
        "O",
        "ur"
      ],
      [
        "T",
        "IS"
      ],
      [
        "b",
        "ri"
      ],
      [
        "k",
        "en"
      ],
      [
        "v",
        "y"
      ],
      [
        "ma",
        "id"
      ],
      [
        "com",
        "p"
      ],
      [
        "roy",
        "al"
      ],
      [
        "c",
        "er"
      ],
      [
        "c",
        "ur"
      ],
      [
        "c",
        "ess"
      ],
      [
        "s",
        "en"
      ],
      [
        "s",
        "ince"
      ],
      [
        "w",
        "it"
      ],
      [
        "st",
        "ate"
      ],
      [
        "la",
        "ck"
      ],
      [
        "wr",
        "ong"
      ],
      [
        "G",
        "AR"
      ],
      [
        "K",
        "ing"
      ],
      [
        "N",
        "E"
      ],
      [
        "f",
        "al"
      ],
      [
        "g",
        "ar"
      ],
      [
        "me",
        "et"
      ],
      [
        "MAR",
        "GAR"
      ],
      [
        "sor",
        "row"
      ],
      [
        "MARGAR",
        "ET"
      ],
      [
        "A",
        "TH"
      ],
      [
        "g",
        "ain"
      ],
      [
        "s",
        "un"
      ],
      [
        "pr",
        "ison"
      ],
      [
        "ey",
        "e"
      ],
      [
        "O",
        "n"
      ],
      [
        "v",
        "ir"
      ],
      [
        "who",
        "m"
      ],
      [
        "CA",
        "L"
      ],
      [
        "whi",
        "le"
      ],
      [
        "hel",
        "p"
      ],
      [
        "B",
        "o"
      ],
      [
        "G",
        "EL"
      ],
      [
        "H",
        "OR"
      ],
      [
        "g",
        "en"
      ],
      [
        "l",
        "es"
      ],
      [
        "n",
        "ing"
      ],
      [
        "p",
        "i"
      ],
      [
        "t",
        "ing"
      ],
      [
        "v",
        "ere"
      ],
      [
        "x",
        "t"
      ],
      [
        "re",
        "me"
      ],
      [
        "it",
        "ion"
      ],
      [
        "thou",
        "sand"
      ],
      [
        "AN",
        "GEL"
      ],
      [
        "tr",
        "ess"
      ],
      [
        "OR",
        "D"
      ],
      [
        "sel",
        "ves"
      ],
      [
        "gra",
        "cious"
      ],
      [
        "ab",
        "out"
      ],
      [
        "ans",
        "wer"
      ],
      [
        "Cl",
        "ar"
      ],
      [
        "ANGEL",
        "O"
      ],
      [
        "C",
        "U"
      ],
      [
        "E",
        "ng"
      ],
      [
        "g",
        "re"
      ],
      [
        "v",
        "il"
      ],
      [
        "is",
        "s"
      ],
      [
        "li",
        "es"
      ],
      [
        "we",
        "ep"
      ],
      [
        "AR",
        "INA"
      ],
      [
        "foo",
        "l"
      ],
      [
        "Clar",
        "ence"
      ],
      [
        "K",
        "ATH"
      ],
      [
        "m",
        "on"
      ],
      [
        "w",
        "n"
      ],
      [
        "ce",
        "ive"
      ],
      [
        "ci",
        "us"
      ],
      [
        "KATH",
        "ARINA"
      ],
      [
        "S",
        "t"
      ],
      [
        "o",
        "ver"
      ],
      [
        "in",
        "to"
      ],
      [
        "vi",
        "ce"
      ],
      [
        "gentle",
        "man"
      ],
      [
        "Mar",
        "cius"
      ],
      [
        "c",
        "ousin"
      ],
      [
        "g",
        "ed"
      ],
      [
        "p",
        "et"
      ],
      [
        "st",
        "ri"
      ],
      [
        "as",
        "ure"
      ],
      [
        "bo",
        "dy"
      ],
      [
        "U",
        "p"
      ],
      [
        "t",
        "urn"
      ],
      [
        "or",
        "y"
      ],
      [
        "se",
        "d"
      ],
      [
        "re",
        "ady"
      ],
      [
        "for",
        "m"
      ],
      [
        "hat",
        "e"
      ],
      [
        "ma",
        "kes"
      ],
      [
        "ES",
        "CAL"
      ],
      [
        "sp",
        "ir"
      ],
      [
        "gri",
        "ef"
      ],
      [
        "ESCAL",
        "US"
      ],
      [
        "H",
        "er"
      ],
      [
        "P",
        "r"
      ],
      [
        "b",
        "t"
      ],
      [
        "e",
        "ld"
      ],
      [
        "u",
        "d"
      ],
      [
        "con",
        "tent"
      ],
      [
        "ang",
        "er"
      ],
      [
        "je",
        "ct"
      ],
      [
        "H",
        "ath"
      ],
      [
        "do",
        "st"
      ],
      [
        "bro",
        "ke"
      ],
      [
        "pro",
        "ve"
      ],
      [
        "fort",
        "une"
      ],
      [
        "A",
        "U"
      ],
      [
        "D",
        "UCH"
      ],
      [
        "D",
        "uke"
      ],
      [
        "c",
        "ra"
      ],
      [
        "d",
        "ow"
      ],
      [
        "s",
        "l"
      ],
      [
        "v",
        "ill"
      ],
      [
        "er",
        "y"
      ],
      [
        "ar",
        "y"
      ],
      [
        "wi",
        "lt"
      ],
      [
        "DUCH",
        "ESS"
      ],
      [
        "p",
        "her"
      ],
      [
        "r",
        "ant"
      ],
      [
        "it",
        "or"
      ],
      [
        "un",
        "t"
      ],
      [
        "po",
        "s"
      ],
      [
        "RO",
        "S"
      ],
      [
        "pl",
        "ay"
      ],
      [
        "An",
        "ge"
      ],
      [
        "sle",
        "ep"
      ],
      [
        "k",
        "ne"
      ],
      [
        "s",
        "ound"
      ],
      [
        "an",
        "ca"
      ],
      [
        "fa",
        "ul"
      ],
      [
        "than",
        "k"
      ],
      [
        "time",
        "s"
      ],
      [
        "swe",
        "ar"
      ],
      [
        "arm",
        "s"
      ],
      [
        "urder",
        "er"
      ],
      [
        "Ange",
        "lo"
      ],
      [
        "e",
        "ech"
      ],
      [
        "o",
        "st"
      ],
      [
        "w",
        "a"
      ],
      [
        "in",
        "deed"
      ],
      [
        "an",
        "other"
      ],
      [
        "is",
        "ed"
      ],
      [
        "gra",
        "ve"
      ],
      [
        "CA",
        "MIL"
      ],
      [
        "ac",
        "c"
      ],
      [
        "fal",
        "se"
      ],
      [
        "CAMIL",
        "LO"
      ],
      [
        "E",
        "ven"
      ],
      [
        "W",
        "ould"
      ],
      [
        "b",
        "al"
      ],
      [
        "e",
        "ven"
      ],
      [
        "m",
        "atter"
      ],
      [
        "ha",
        "s"
      ],
      [
        "com",
        "fort"
      ],
      [
        "tal",
        "k"
      ],
      [
        "Pro",
        "vost"
      ],
      [
        "happ",
        "y"
      ],
      [
        "pat",
        "i"
      ],
      [
        "T",
        "y"
      ],
      [
        "T",
        "EN"
      ],
      [
        "f",
        "ight"
      ],
      [
        "me",
        "d"
      ],
      [
        "re",
        "ason"
      ],
      [
        "ain",
        "t"
      ],
      [
        "su",
        "re"
      ],
      [
        "HOR",
        "TEN"
      ],
      [
        "vere",
        "ign"
      ],
      [
        "HORTEN",
        "S"
      ],
      [
        "F",
        "R"
      ],
      [
        "I",
        "AR"
      ],
      [
        "c",
        "or"
      ],
      [
        "v",
        "ent"
      ],
      [
        "ou",
        "ch"
      ],
      [
        "on",
        "ly"
      ],
      [
        "st",
        "ra"
      ],
      [
        "of",
        "fi"
      ],
      [
        "so",
        "vereign"
      ],
      [
        "coun",
        "try"
      ],
      [
        "ban",
        "ish"
      ],
      [
        "Up",
        "on"
      ],
      [
        "HORTENS",
        "IO"
      ],
      [
        "FR",
        "IAR"
      ],
      [
        ",",
        "'"
      ],
      [
        "A",
        "re"
      ],
      [
        "P",
        "TIS"
      ],
      [
        "T",
        "hi"
      ],
      [
        "c",
        "are"
      ],
      [
        "m",
        "in"
      ],
      [
        "s",
        "end"
      ],
      [
        "v",
        "a"
      ],
      [
        "w",
        "ish"
      ],
      [
        "y",
        "ears"
      ],
      [
        "ra",
        "ther"
      ],
      [
        "lie",
        "ve"
      ],
      [
        "BA",
        "PTIS"
      ],
      [
        "tru",
        "th"
      ],
      [
        "vir",
        "t"
      ],
      [
        "BAPTIS",
        "TA"
      ],
      [
        "A",
        "UT"
      ],
      [
        "C",
        "US"
      ],
      [
        "C",
        "OM"
      ],
      [
        "M",
        "ore"
      ],
      [
        "Y",
        "CUS"
      ],
      [
        "b",
        "it"
      ],
      [
        "i",
        "re"
      ],
      [
        "s",
        "la"
      ],
      [
        "re",
        "ven"
      ],
      [
        "one",
        "st"
      ],
      [
        "go",
        "t"
      ],
      [
        "OL",
        "YCUS"
      ],
      [
        "bus",
        "iness"
      ],
      [
        "AUT",
        "OLYCUS"
      ],
      [
        "COM",
        "INIUS"
      ],
      [
        ".",
        "'"
      ],
      [
        "A",
        "t"
      ],
      [
        "E",
        "Y"
      ],
      [
        "h",
        "ang"
      ],
      [
        "i",
        "ous"
      ],
      [
        "r",
        "d"
      ],
      [
        "s",
        "po"
      ],
      [
        "w",
        "om"
      ],
      [
        "w",
        "ant"
      ],
      [
        "en",
        "e"
      ],
      [
        "AR",
        "ENCE"
      ],
      [
        "sha",
        "lt"
      ],
      [
        "des",
        "er"
      ],
      [
        "CL",
        "ARENCE"
      ],
      [
        "Thi",
        "rd"
      ],
      [
        "w",
        "ind"
      ],
      [
        "y",
        "e"
      ],
      [
        "ar",
        "n"
      ],
      [
        "se",
        "a"
      ],
      [
        "ur",
        "y"
      ],
      [
        "bre",
        "ath"
      ],
      [
        "ie",
        "ld"
      ],
      [
        "comm",
        "and"
      ],
      [
        "dre",
        "am"
      ],
      [
        "pher",
        "d"
      ],
      [
        "B",
        "EN"
      ],
      [
        "G",
        "entle"
      ],
      [
        "N",
        "OR"
      ],
      [
        "S",
        "h"
      ],
      [
        "T",
        "ake"
      ],
      [
        "p",
        "rom"
      ],
      [
        "th",
        "ree"
      ],
      [
        "ho",
        "ly"
      ],
      [
        "fe",
        "ct"
      ],
      [
        "la",
        "u"
      ],
      [
        "comm",
        "on"
      ],
      [
        "Cl",
        "own"
      ],
      [
        "VOL",
        "IO"
      ],
      [
        "BEN",
        "VOLIO"
      ],
      [
        "M",
        "ER"
      ],
      [
        "P",
        "A"
      ],
      [
        "P",
        "ROS"
      ],
      [
        "T",
        "e"
      ],
      [
        "i",
        "gh"
      ],
      [
        "p",
        "ity"
      ],
      [
        "t",
        "w"
      ],
      [
        "en",
        "ough"
      ],
      [
        "so",
        "ld"
      ],
      [
        "UM",
        "IO"
      ],
      [
        "GR",
        "UMIO"
      ],
      [
        "PER",
        "O"
      ],
      [
        "wel",
        "come"
      ],
      [
        "hor",
        "se"
      ],
      [
        "dou",
        "bt"
      ],
      [
        "PROS",
        "PERO"
      ],
      [
        "K",
        "ate"
      ],
      [
        "M",
        "urderer"
      ],
      [
        "a",
        "ir"
      ],
      [
        "h",
        "um"
      ],
      [
        "at",
        "or"
      ],
      [
        "re",
        "ad"
      ],
      [
        "be",
        "a"
      ],
      [
        "li",
        "ves"
      ],
      [
        "pe",
        "ct"
      ],
      [
        "CU",
        "TIO"
      ],
      [
        "vill",
        "ain"
      ],
      [
        "MER",
        "CUTIO"
      ],
      [
        "J",
        "u"
      ],
      [
        "L",
        "i"
      ],
      [
        "W",
        "ere"
      ],
      [
        "b",
        "orn"
      ],
      [
        "f",
        "ree"
      ],
      [
        "k",
        "iss"
      ],
      [
        "l",
        "ate"
      ],
      [
        "an",
        "ta"
      ],
      [
        "as",
        "k"
      ],
      [
        "with",
        "in"
      ],
      [
        "go",
        "ds"
      ],
      [
        "wor",
        "n"
      ],
      [
        "LUC",
        "ENTIO"
      ],
      [
        "mad",
        "am"
      ],
      [
        "Ser",
        "vant"
      ],
      [
        "nat",
        "ure"
      ],
      [
        "A",
        "l"
      ],
      [
        "P",
        "OM"
      ],
      [
        "c",
        "re"
      ],
      [
        "c",
        "ity"
      ],
      [
        "s",
        "ister"
      ],
      [
        "for",
        "ce"
      ],
      [
        "our",
        "s"
      ],
      [
        "thing",
        "s"
      ],
      [
        "que",
        "st"
      ],
      [
        "mis",
        "tress"
      ],
      [
        "LAN",
        "D"
      ],
      [
        "POM",
        "P"
      ],
      [
        "G",
        "ive"
      ],
      [
        "R",
        "o"
      ],
      [
        "W",
        "as"
      ],
      [
        "f",
        "oul"
      ],
      [
        "o",
        "ath"
      ],
      [
        "w",
        "ound"
      ],
      [
        "y",
        "ield"
      ],
      [
        "me",
        "ans"
      ],
      [
        "ent",
        "s"
      ],
      [
        "ent",
        "er"
      ],
      [
        "pr",
        "oud"
      ],
      [
        "sa",
        "w"
      ],
      [
        "fi",
        "re"
      ],
      [
        "UL",
        "INA"
      ],
      [
        "sub",
        "ject"
      ],
      [
        "bes",
        "eech"
      ],
      [
        "PA",
        "ULINA"
      ],
      [
        "C",
        "on"
      ],
      [
        "S",
        "ay"
      ],
      [
        "m",
        "s"
      ],
      [
        "se",
        "en"
      ],
      [
        "re",
        "l"
      ],
      [
        "of",
        "t"
      ],
      [
        "de",
        "li"
      ],
      [
        "your",
        "s"
      ],
      [
        "fa",
        "ith"
      ],
      [
        "ge",
        "ther"
      ],
      [
        "ap",
        "pe"
      ],
      [
        "ond",
        "er"
      ],
      [
        "GRE",
        "MIO"
      ],
      [
        "gain",
        "st"
      ],
      [
        "POMP",
        "EY"
      ],
      [
        "I",
        "X"
      ],
      [
        "L",
        "ook"
      ],
      [
        "N",
        "IA"
      ],
      [
        "P",
        "OL"
      ],
      [
        "c",
        "la"
      ],
      [
        "g",
        "ro"
      ],
      [
        "h",
        "onest"
      ],
      [
        "i",
        "er"
      ],
      [
        "p",
        "ain"
      ],
      [
        "s",
        "m"
      ],
      [
        "w",
        "in"
      ],
      [
        "de",
        "m"
      ],
      [
        "your",
        "self"
      ],
      [
        "EN",
        "ES"
      ],
      [
        "ver",
        "s"
      ],
      [
        "AN",
        "T"
      ],
      [
        "tr",
        "ust"
      ],
      [
        "bl",
        "es"
      ],
      [
        "pl",
        "ain"
      ],
      [
        "blood",
        "y"
      ],
      [
        "look",
        "s"
      ],
      [
        "UM",
        "NIA"
      ],
      [
        "cour",
        "t"
      ],
      [
        "VOL",
        "UMNIA"
      ],
      [
        "gen",
        "er"
      ],
      [
        "Eng",
        "land"
      ],
      [
        "Ty",
        "bal"
      ],
      [
        "IX",
        "ENES"
      ],
      [
        "POL",
        "IXENES"
      ],
      [
        "B",
        "ER"
      ],
      [
        "G",
        "ON"
      ],
      [
        "S",
        "ome"
      ],
      [
        "i",
        "or"
      ],
      [
        "v",
        "is"
      ],
      [
        "be",
        "at"
      ],
      [
        "un",
        "cle"
      ],
      [
        "ING",
        "S"
      ],
      [
        "bre",
        "ak"
      ],
      [
        "ving",
        "man"
      ],
      [
        "hast",
        "e"
      ],
      [
        "HA",
        "ST"
      ],
      [
        "tra",
        "itor"
      ],
      [
        "eng",
        "er"
      ],
      [
        "Ser",
        "vingman"
      ],
      [
        "shi",
        "p"
      ],
      [
        "cent",
        "io"
      ],
      [
        "Tybal",
        "t"
      ],
      [
        "HAST",
        "INGS"
      ],
      [
        "C",
        "an"
      ],
      [
        "D",
        "id"
      ],
      [
        "H",
        "ast"
      ],
      [
        "M",
        "ay"
      ],
      [
        "R",
        "ENCE"
      ],
      [
        "b",
        "at"
      ],
      [
        "s",
        "in"
      ],
      [
        "s",
        "it"
      ],
      [
        "to",
        "gether"
      ],
      [
        "ha",
        "l"
      ],
      [
        "ch",
        "ange"
      ],
      [
        "un",
        "es"
      ],
      [
        "ma",
        "jest"
      ],
      [
        "po",
        "int"
      ],
      [
        "per",
        "son"
      ],
      [
        "day",
        "s"
      ],
      [
        "think",
        "s"
      ],
      [
        "child",
        "ren"
      ],
      [
        "tend",
        "er"
      ],
      [
        "LAU",
        "RENCE"
      ],
      [
        "A",
        "h"
      ],
      [
        "B",
        "Y"
      ],
      [
        "P",
        "et"
      ],
      [
        "d",
        "anger"
      ],
      [
        "g",
        "a"
      ],
      [
        "l",
        "am"
      ],
      [
        "s",
        "ight"
      ],
      [
        "s",
        "word"
      ],
      [
        "w",
        "is"
      ],
      [
        "w",
        "at"
      ],
      [
        "to",
        "ld"
      ],
      [
        "le",
        "ft"
      ],
      [
        "ow",
        "s"
      ],
      [
        "we",
        "ar"
      ],
      [
        "ad",
        "v"
      ],
      [
        "ck",
        "s"
      ],
      [
        "wo",
        "e"
      ],
      [
        "mer",
        "cy"
      ],
      [
        "war",
        "rant"
      ],
      [
        "There",
        "fore"
      ],
      [
        "foo",
        "t"
      ],
      [
        "Ju",
        "li"
      ],
      [
        "majest",
        "y"
      ],
      [
        "F",
        "F"
      ],
      [
        "I",
        "FF"
      ],
      [
        "f",
        "arewell"
      ],
      [
        "l",
        "ing"
      ],
      [
        "z",
        "e"
      ],
      [
        "on",
        "es"
      ],
      [
        "ut",
        "e"
      ],
      [
        "li",
        "f"
      ],
      [
        "de",
        "st"
      ],
      [
        "sa",
        "ve"
      ],
      [
        "UM",
        "BER"
      ],
      [
        "TH",
        "UMBER"
      ],
      [
        "CL",
        "IFF"
      ],
      [
        "rep",
        "ort"
      ],
      [
        "NOR",
        "THUMBER"
      ],
      [
        "NORTHUMBER",
        "LAND"
      ],
      [
        "I",
        "D"
      ],
      [
        "L",
        "u"
      ],
      [
        "M",
        "on"
      ],
      [
        "c",
        "old"
      ],
      [
        "r",
        "ance"
      ],
      [
        "s",
        "ing"
      ],
      [
        "s",
        "ad"
      ],
      [
        "us",
        "h"
      ],
      [
        "do",
        "es"
      ],
      [
        "go",
        "ld"
      ],
      [
        "wor",
        "thy"
      ],
      [
        "know",
        "n"
      ],
      [
        "mar",
        "ry"
      ],
      [
        "Thou",
        "gh"
      ],
      [
        "che",
        "s"
      ],
      [
        "ret",
        "urn"
      ],
      [
        "just",
        "ice"
      ],
      [
        "dra",
        "w"
      ],
      [
        "Te",
        "ll"
      ],
      [
        "hal",
        "f"
      ],
      [
        "C",
        "or"
      ],
      [
        "C",
        "om"
      ],
      [
        "g",
        "row"
      ],
      [
        "h",
        "ard"
      ],
      [
        "n",
        "er"
      ],
      [
        "n",
        "urse"
      ],
      [
        "r",
        "un"
      ],
      [
        "is",
        "t"
      ],
      [
        "be",
        "lieve"
      ],
      [
        "with",
        "out"
      ],
      [
        "so",
        "on"
      ],
      [
        "su",
        "e"
      ],
      [
        "ter",
        "s"
      ],
      [
        "AN",
        "NE"
      ],
      [
        "hea",
        "vy"
      ],
      [
        "pur",
        "pose"
      ],
      [
        "thr",
        "ough"
      ],
      [
        "C",
        "lif"
      ],
      [
        "H",
        "ad"
      ],
      [
        "L",
        "e"
      ],
      [
        "P",
        "R"
      ],
      [
        "S",
        "ign"
      ],
      [
        "W",
        "hi"
      ],
      [
        "a",
        "the"
      ],
      [
        "f",
        "ly"
      ],
      [
        "i",
        "ly"
      ],
      [
        "s",
        "il"
      ],
      [
        "he",
        "ir"
      ],
      [
        "lo",
        "st"
      ],
      [
        "pl",
        "uck"
      ],
      [
        "INC",
        "E"
      ],
      [
        "str",
        "ange"
      ],
      [
        "Juli",
        "et"
      ],
      [
        "PR",
        "INCE"
      ],
      [
        "B",
        "ol"
      ],
      [
        "G",
        "re"
      ],
      [
        "c",
        "ry"
      ],
      [
        "c",
        "urse"
      ],
      [
        "f",
        "it"
      ],
      [
        "f",
        "ound"
      ],
      [
        "o",
        "be"
      ],
      [
        "p",
        "en"
      ],
      [
        "p",
        "ast"
      ],
      [
        "ing",
        "broke"
      ],
      [
        "be",
        "l"
      ],
      [
        "ce",
        "ed"
      ],
      [
        "ent",
        "y"
      ],
      [
        "lo",
        "ss"
      ],
      [
        "thy",
        "self"
      ],
      [
        "ne",
        "ar"
      ],
      [
        "con",
        "s"
      ],
      [
        "say",
        "s"
      ],
      [
        "lie",
        "ge"
      ],
      [
        "char",
        "ge"
      ],
      [
        "spir",
        "it"
      ],
      [
        "Clif",
        "ford"
      ],
      [
        "Sign",
        "ior"
      ],
      [
        "Bol",
        "ingbroke"
      ],
      [
        "A",
        "way"
      ],
      [
        "C",
        "am"
      ],
      [
        "F",
        "arewell"
      ],
      [
        "M",
        "e"
      ],
      [
        "O",
        "ne"
      ],
      [
        "R",
        "e"
      ],
      [
        "f",
        "et"
      ],
      [
        "i",
        "de"
      ],
      [
        "s",
        "worn"
      ],
      [
        "t",
        "it"
      ],
      [
        "t",
        "ro"
      ],
      [
        "w",
        "all"
      ],
      [
        "ou",
        "th"
      ],
      [
        "he",
        "d"
      ],
      [
        "ha",
        "m"
      ],
      [
        "do",
        "m"
      ],
      [
        "str",
        "ong"
      ],
      [
        "Who",
        "se"
      ],
      [
        "pa",
        "ir"
      ],
      [
        "gr",
        "ound"
      ],
      [
        "Sh",
        "ould"
      ],
      [
        "A",
        "LO"
      ],
      [
        "C",
        "a"
      ],
      [
        "g",
        "s"
      ],
      [
        "i",
        "ces"
      ],
      [
        "w",
        "oo"
      ],
      [
        "w",
        "ise"
      ],
      [
        "in",
        "a"
      ],
      [
        "in",
        "str"
      ],
      [
        "de",
        "ep"
      ],
      [
        "de",
        "vil"
      ],
      [
        "ent",
        "reat"
      ],
      [
        "fa",
        "st"
      ],
      [
        "bo",
        "ld"
      ],
      [
        "ast",
        "er"
      ],
      [
        "use",
        "d"
      ],
      [
        "fri",
        "ar"
      ],
      [
        "mar",
        "ried"
      ],
      [
        "ser",
        "vice"
      ],
      [
        "eng",
        "th"
      ],
      [
        "Pr",
        "ay"
      ],
      [
        "cla",
        "im"
      ],
      [
        "Mon",
        "ta"
      ],
      [
        "F",
        "rance"
      ],
      [
        "G",
        "l"
      ],
      [
        "S",
        "en"
      ],
      [
        "a",
        "ther"
      ],
      [
        "d",
        "are"
      ],
      [
        "en",
        "ch"
      ],
      [
        "to",
        "ward"
      ],
      [
        "de",
        "f"
      ],
      [
        "id",
        "es"
      ],
      [
        "su",
        "p"
      ],
      [
        "qu",
        "ar"
      ],
      [
        "thought",
        "s"
      ],
      [
        "qui",
        "ck"
      ],
      [
        "reme",
        "mber"
      ],
      [
        "sl",
        "ain"
      ],
      [
        "faul",
        "t"
      ],
      [
        "stra",
        "ight"
      ],
      [
        "Li",
        "ke"
      ],
      [
        "F",
        "L"
      ],
      [
        "F",
        "ID"
      ],
      [
        "J",
        "o"
      ],
      [
        "M",
        "ess"
      ],
      [
        "c",
        "r"
      ],
      [
        "c",
        "al"
      ],
      [
        "e",
        "cut"
      ],
      [
        "f",
        "ol"
      ],
      [
        "o",
        "b"
      ],
      [
        "p",
        "h"
      ],
      [
        "t",
        "ouch"
      ],
      [
        "at",
        "s"
      ],
      [
        "le",
        "arn"
      ],
      [
        "ch",
        "oo"
      ],
      [
        "al",
        "one"
      ],
      [
        "lo",
        "se"
      ],
      [
        "The",
        "se"
      ],
      [
        "su",
        "it"
      ],
      [
        "pr",
        "ess"
      ],
      [
        "end",
        "s"
      ],
      [
        "OR",
        "IZ"
      ],
      [
        "sa",
        "me"
      ],
      [
        "wor",
        "th"
      ],
      [
        "love",
        "d"
      ],
      [
        "mar",
        "k"
      ],
      [
        "cour",
        "se"
      ],
      [
        "op",
        "en"
      ],
      [
        "AU",
        "FID"
      ],
      [
        "ene",
        "my"
      ],
      [
        "bea",
        "uty"
      ],
      [
        "gener",
        "al"
      ],
      [
        "FL",
        "ORIZ"
      ],
      [
        "Mess",
        "enger"
      ],
      [
        "AUFID",
        "IUS"
      ],
      [
        "FLORIZ",
        "EL"
      ],
      [
        "C",
        "lau"
      ],
      [
        "S",
        "E"
      ],
      [
        "a",
        "ct"
      ],
      [
        "b",
        "ir"
      ],
      [
        "b",
        "our"
      ],
      [
        "c",
        "ro"
      ],
      [
        "f",
        "ur"
      ],
      [
        "i",
        "ed"
      ],
      [
        "wi",
        "dow"
      ],
      [
        "IO",
        "N"
      ],
      [
        "pr",
        "of"
      ],
      [
        "di",
        "o"
      ],
      [
        "si",
        "de"
      ],
      [
        "ex",
        "ecut"
      ],
      [
        "br",
        "ought"
      ],
      [
        "Se",
        "e"
      ],
      [
        "gr",
        "ant"
      ],
      [
        "hour",
        "s"
      ],
      [
        "reven",
        "ge"
      ],
      [
        "tw",
        "enty"
      ],
      [
        "Clau",
        "dio"
      ],
      [
        "!",
        "'"
      ],
      [
        "H",
        "a"
      ],
      [
        "M",
        "ad"
      ],
      [
        "b",
        "ow"
      ],
      [
        "d",
        "uty"
      ],
      [
        "j",
        "ud"
      ],
      [
        "s",
        "es"
      ],
      [
        "you",
        "th"
      ],
      [
        "re",
        "w"
      ],
      [
        "it",
        "self"
      ],
      [
        "ri",
        "ch"
      ],
      [
        "so",
        "m"
      ],
      [
        "fe",
        "el"
      ],
      [
        "con",
        "su"
      ],
      [
        "ER",
        "S"
      ],
      [
        "mo",
        "ve"
      ],
      [
        "mo",
        "ck"
      ],
      [
        "wor",
        "k"
      ],
      [
        "can",
        "st"
      ],
      [
        "know",
        "s"
      ],
      [
        "spe",
        "ed"
      ],
      [
        "um",
        "ber"
      ],
      [
        "conf",
        "ess"
      ],
      [
        "Gentle",
        "man"
      ],
      [
        "Sen",
        "ator"
      ],
      [
        "Mad",
        "am"
      ],
      [
        "A",
        "gainst"
      ],
      [
        "C",
        "IUS"
      ],
      [
        "C",
        "ap"
      ],
      [
        "D",
        "e"
      ],
      [
        "M",
        "aster"
      ],
      [
        "b",
        "s"
      ],
      [
        "b",
        "ound"
      ],
      [
        "d",
        "am"
      ],
      [
        "p",
        "ed"
      ],
      [
        "u",
        "a"
      ],
      [
        "v",
        "al"
      ],
      [
        "ou",
        "ce"
      ],
      [
        "le",
        "ad"
      ],
      [
        "ch",
        "o"
      ],
      [
        "ri",
        "age"
      ],
      [
        "ord",
        "er"
      ],
      [
        "ill",
        "o"
      ],
      [
        "il",
        "s"
      ],
      [
        "sa",
        "ke"
      ],
      [
        "ple",
        "asure"
      ],
      [
        "fi",
        "eld"
      ],
      [
        "des",
        "ire"
      ],
      [
        "coun",
        "ter"
      ],
      [
        "stand",
        "s"
      ],
      [
        "che",
        "d"
      ],
      [
        "ser",
        "ve"
      ],
      [
        "res",
        "ol"
      ],
      [
        "MAR",
        "CIUS"
      ],
      [
        "BA",
        "ST"
      ],
      [
        "She",
        "pherd"
      ],
      [
        "comp",
        "any"
      ],
      [
        "wom",
        "en"
      ],
      [
        "Monta",
        "gue"
      ],
      [
        "Gl",
        "ouce"
      ],
      [
        "SE",
        "BAST"
      ],
      [
        "SEBAST",
        "IAN"
      ],
      [
        "M",
        "ON"
      ],
      [
        "O",
        "W"
      ],
      [
        "b",
        "urn"
      ],
      [
        "d",
        "ish"
      ],
      [
        "e",
        "ither"
      ],
      [
        "g",
        "es"
      ],
      [
        "h",
        "arm"
      ],
      [
        "m",
        "us"
      ],
      [
        "m",
        "urder"
      ],
      [
        "me",
        "t"
      ],
      [
        "he",
        "s"
      ],
      [
        "he",
        "ll"
      ],
      [
        "ing",
        "ham"
      ],
      [
        "be",
        "hold"
      ],
      [
        "ch",
        "ance"
      ],
      [
        "fe",
        "ction"
      ],
      [
        "Th",
        "us"
      ],
      [
        "heart",
        "s"
      ],
      [
        "coun",
        "sel"
      ],
      [
        "fear",
        "ful"
      ],
      [
        "Cam",
        "illo"
      ],
      [
        "B",
        "uck"
      ],
      [
        "B",
        "ION"
      ],
      [
        "D",
        "EL"
      ],
      [
        "T",
        "ill"
      ],
      [
        "V",
        "ol"
      ],
      [
        "a",
        "u"
      ],
      [
        "d",
        "ro"
      ],
      [
        "e",
        "ach"
      ],
      [
        "f",
        "er"
      ],
      [
        "i",
        "ci"
      ],
      [
        "s",
        "at"
      ],
      [
        "s",
        "ur"
      ],
      [
        "v",
        "our"
      ],
      [
        "w",
        "ret"
      ],
      [
        "be",
        "ll"
      ],
      [
        "ho",
        "t"
      ],
      [
        "lo",
        "ving"
      ],
      [
        "su",
        "c"
      ],
      [
        "sh",
        "ort"
      ],
      [
        "ta",
        "le"
      ],
      [
        "te",
        "st"
      ],
      [
        "mar",
        "riage"
      ],
      [
        "stri",
        "ke"
      ],
      [
        "Hast",
        "ings"
      ],
      [
        "Glouce",
        "ster"
      ],
      [
        "Buck",
        "ingham"
      ],
      [
        "BION",
        "DEL"
      ],
      [
        "BIONDEL",
        "LO"
      ],
      [
        "A",
        "u"
      ],
      [
        "C",
        "h"
      ],
      [
        "c",
        "ri"
      ],
      [
        "d",
        "u"
      ],
      [
        "f",
        "id"
      ],
      [
        "m",
        "it"
      ],
      [
        "p",
        "ie"
      ],
      [
        "s",
        "ign"
      ],
      [
        "w",
        "on"
      ],
      [
        "w",
        "onder"
      ],
      [
        "at",
        "tend"
      ],
      [
        "st",
        "o"
      ],
      [
        "st",
        "u"
      ],
      [
        "as",
        "h"
      ],
      [
        "we",
        "en"
      ],
      [
        "with",
        "al"
      ],
      [
        "ra",
        "h"
      ],
      [
        "ca",
        "st"
      ],
      [
        "sa",
        "fe"
      ],
      [
        "some",
        "thing"
      ],
      [
        "si",
        "ck"
      ],
      [
        "vo",
        "ices"
      ],
      [
        "mis",
        "s"
      ],
      [
        "pre",
        "t"
      ],
      [
        "Nor",
        "fol"
      ],
      [
        "gu",
        "il"
      ],
      [
        "high",
        "ness"
      ],
      [
        "gi",
        "ven"
      ],
      [
        "pati",
        "ence"
      ],
      [
        "deli",
        "ver"
      ],
      [
        "Vol",
        "s"
      ],
      [
        "Norfol",
        "k"
      ],
      [
        "A",
        "UM"
      ],
      [
        "H",
        "ER"
      ],
      [
        "O",
        "P"
      ],
      [
        "c",
        "red"
      ],
      [
        "k",
        "n"
      ],
      [
        "k",
        "new"
      ],
      [
        "l",
        "s"
      ],
      [
        "p",
        "it"
      ],
      [
        "p",
        "ra"
      ],
      [
        "r",
        "ing"
      ],
      [
        "w",
        "ast"
      ],
      [
        "w",
        "atch"
      ],
      [
        "in",
        "ed"
      ],
      [
        "wi",
        "xt"
      ],
      [
        "al",
        "th"
      ],
      [
        "all",
        "y"
      ],
      [
        "lo",
        "ves"
      ],
      [
        "su",
        "ff"
      ],
      [
        "ER",
        "LE"
      ],
      [
        "com",
        "ing"
      ],
      [
        "We",
        "l"
      ],
      [
        "too",
        "k"
      ],
      [
        "did",
        "st"
      ],
      [
        "ON",
        "IO"
      ],
      [
        "str",
        "ength"
      ],
      [
        "gentle",
        "men"
      ],
      [
        "heaven",
        "s"
      ],
      [
        "fl",
        "atter"
      ],
      [
        "pa",
        "le"
      ],
      [
        "pose",
        "d"
      ],
      [
        "Ro",
        "man"
      ],
      [
        "ANT",
        "ONIO"
      ],
      [
        "Lu",
        "centio"
      ],
      [
        "AUM",
        "ERLE"
      ],
      [
        "B",
        "i"
      ],
      [
        "L",
        "anca"
      ],
      [
        "P",
        "o"
      ],
      [
        "Z",
        "ALO"
      ],
      [
        "a",
        "w"
      ],
      [
        "b",
        "ar"
      ],
      [
        "g",
        "er"
      ],
      [
        "h",
        "ood"
      ],
      [
        "l",
        "ad"
      ],
      [
        "r",
        "is"
      ],
      [
        "th",
        "ri"
      ],
      [
        "en",
        "em"
      ],
      [
        "st",
        "ir"
      ],
      [
        "be",
        "come"
      ],
      [
        "ce",
        "pt"
      ],
      [
        "li",
        "ps"
      ],
      [
        "mor",
        "tal"
      ],
      [
        "po",
        "st"
      ],
      [
        "Mar",
        "ry"
      ],
      [
        "bra",
        "ve"
      ],
      [
        "tem",
        "pt"
      ],
      [
        "GON",
        "ZALO"
      ],
      [
        "Lanca",
        "ster"
      ],
      [
        "enem",
        "ies"
      ],
      [
        "L",
        "o"
      ],
      [
        "L",
        "ady"
      ],
      [
        "M",
        "ost"
      ],
      [
        "P",
        "om"
      ],
      [
        "S",
        "A"
      ],
      [
        "Y",
        "e"
      ],
      [
        "a",
        "bo"
      ],
      [
        "b",
        "ly"
      ],
      [
        "b",
        "ook"
      ],
      [
        "e",
        "per"
      ],
      [
        "g",
        "ates"
      ],
      [
        "w",
        "ed"
      ],
      [
        "is",
        "hed"
      ],
      [
        "on",
        "s"
      ],
      [
        "he",
        "ld"
      ],
      [
        "ce",
        "d"
      ],
      [
        "ho",
        "p"
      ],
      [
        "ne",
        "xt"
      ],
      [
        "po",
        "ss"
      ],
      [
        "see",
        "k"
      ],
      [
        "than",
        "ks"
      ],
      [
        "ci",
        "ent"
      ],
      [
        "pro",
        "p"
      ],
      [
        "bre",
        "athe"
      ],
      [
        "co",
        "ver"
      ],
      [
        "soul",
        "s"
      ],
      [
        "cer",
        "tain"
      ],
      [
        "ceive",
        "d"
      ],
      [
        "wat",
        "er"
      ],
      [
        "tit",
        "le"
      ],
      [
        "suff",
        "er"
      ],
      [
        "Bi",
        "anca"
      ],
      [
        "B",
        "es"
      ],
      [
        "C",
        "LAU"
      ],
      [
        "D",
        "IO"
      ],
      [
        "P",
        "l"
      ],
      [
        "T",
        "ran"
      ],
      [
        "b",
        "row"
      ],
      [
        "c",
        "ure"
      ],
      [
        "f",
        "our"
      ],
      [
        "g",
        "ave"
      ],
      [
        "m",
        "outh"
      ],
      [
        "w",
        "h"
      ],
      [
        "of",
        "ten"
      ],
      [
        "ra",
        "ge"
      ],
      [
        "ma",
        "in"
      ],
      [
        "con",
        "sent"
      ],
      [
        "po",
        "ison"
      ],
      [
        "bo",
        "som"
      ],
      [
        "them",
        "selves"
      ],
      [
        "bre",
        "ast"
      ],
      [
        "che",
        "e"
      ],
      [
        "che",
        "er"
      ],
      [
        "jo",
        "in"
      ],
      [
        "mer",
        "ry"
      ],
      [
        "gri",
        "e"
      ],
      [
        "MIO",
        "NE"
      ],
      [
        "Al",
        "as"
      ],
      [
        "Pet",
        "ru"
      ],
      [
        "CLIFF",
        "ORD"
      ],
      [
        "HER",
        "MIONE"
      ],
      [
        "CLAU",
        "DIO"
      ],
      [
        "C",
        "all"
      ],
      [
        "D",
        "A"
      ],
      [
        "I",
        "RAN"
      ],
      [
        "J",
        "O"
      ],
      [
        "L",
        "ORD"
      ],
      [
        "M",
        "ake"
      ],
      [
        "M",
        "IRAN"
      ],
      [
        "P",
        "er"
      ],
      [
        "S",
        "ince"
      ],
      [
        "b",
        "lack"
      ],
      [
        "b",
        "unes"
      ],
      [
        "d",
        "ing"
      ],
      [
        "d",
        "den"
      ],
      [
        "i",
        "ers"
      ],
      [
        "k",
        "no"
      ],
      [
        "t",
        "in"
      ],
      [
        "t",
        "or"
      ],
      [
        "t",
        "was"
      ],
      [
        "t",
        "were"
      ],
      [
        "w",
        "d"
      ],
      [
        "th",
        "row"
      ],
      [
        "ve",
        "l"
      ],
      [
        "ow",
        "ard"
      ],
      [
        "for",
        "get"
      ],
      [
        "ere",
        "d"
      ],
      [
        "ed",
        "s"
      ],
      [
        "we",
        "ak"
      ],
      [
        "al",
        "ong"
      ],
      [
        "end",
        "ed"
      ],
      [
        "wor",
        "se"
      ],
      [
        "di",
        "v"
      ],
      [
        "Be",
        "ing"
      ],
      [
        "chi",
        "o"
      ],
      [
        "fo",
        "e"
      ],
      [
        "virt",
        "u"
      ],
      [
        "virt",
        "ue"
      ],
      [
        "appe",
        "ar"
      ],
      [
        "fur",
        "ther"
      ],
      [
        "Au",
        "fid"
      ],
      [
        "Tran",
        "io"
      ],
      [
        "Petru",
        "chio"
      ],
      [
        "MIRAN",
        "DA"
      ],
      [
        "Aufid",
        "ius"
      ],
      [
        "H",
        "N"
      ],
      [
        "S",
        "pe"
      ],
      [
        "S",
        "ON"
      ],
      [
        "a",
        "de"
      ],
      [
        "b",
        "ad"
      ],
      [
        "b",
        "ur"
      ],
      [
        "f",
        "ir"
      ],
      [
        "l",
        "st"
      ],
      [
        "p",
        "are"
      ],
      [
        "s",
        "k"
      ],
      [
        "s",
        "pr"
      ],
      [
        "is",
        "sue"
      ],
      [
        "re",
        "quest"
      ],
      [
        "li",
        "ant"
      ],
      [
        "li",
        "ber"
      ],
      [
        "al",
        "ready"
      ],
      [
        "us",
        "ur"
      ],
      [
        "mor",
        "ning"
      ],
      [
        "king",
        "s"
      ],
      [
        "fl",
        "es"
      ],
      [
        "wr",
        "it"
      ],
      [
        "Here",
        "ford"
      ],
      [
        "beg",
        "in"
      ],
      [
        "offi",
        "ce"
      ],
      [
        "bat",
        "tle"
      ],
      [
        "danger",
        "ous"
      ],
      [
        "sat",
        "is"
      ],
      [
        "JO",
        "HN"
      ],
      [
        "T",
        "ower"
      ],
      [
        "Y",
        "es"
      ],
      [
        "a",
        "unt"
      ],
      [
        "c",
        "reat"
      ],
      [
        "f",
        "rown"
      ],
      [
        "h",
        "ind"
      ],
      [
        "i",
        "ol"
      ],
      [
        "m",
        "ond"
      ],
      [
        "p",
        "ay"
      ],
      [
        "p",
        "al"
      ],
      [
        "p",
        "lo"
      ],
      [
        "in",
        "ter"
      ],
      [
        "an",
        "us"
      ],
      [
        "or",
        "ge"
      ],
      [
        "ar",
        "ry"
      ],
      [
        "hi",
        "p"
      ],
      [
        "fe",
        "ast"
      ],
      [
        "ne",
        "ither"
      ],
      [
        "tr",
        "ou"
      ],
      [
        "go",
        "es"
      ],
      [
        "ca",
        "se"
      ],
      [
        "bl",
        "ess"
      ],
      [
        "then",
        "ce"
      ],
      [
        "di",
        "re"
      ],
      [
        "way",
        "s"
      ],
      [
        "son",
        "s"
      ],
      [
        "Be",
        "fore"
      ],
      [
        "ser",
        "vant"
      ],
      [
        "bet",
        "ween"
      ],
      [
        "Rich",
        "mond"
      ],
      [
        "mi",
        "le"
      ],
      [
        "pati",
        "ent"
      ],
      [
        "sold",
        "iers"
      ],
      [
        "wound",
        "s"
      ],
      [
        "Cor",
        "iol"
      ],
      [
        "quar",
        "rel"
      ],
      [
        "Wel",
        "come"
      ],
      [
        "poss",
        "ess"
      ],
      [
        "Coriol",
        "anus"
      ],
      [
        "A",
        "S"
      ],
      [
        "A",
        "r"
      ],
      [
        "M",
        "ust"
      ],
      [
        "N",
        "T"
      ],
      [
        "P",
        "e"
      ],
      [
        "S",
        "uch"
      ],
      [
        "b",
        "la"
      ],
      [
        "c",
        "c"
      ],
      [
        "f",
        "ra"
      ],
      [
        "f",
        "res"
      ],
      [
        "m",
        "as"
      ],
      [
        "o",
        "d"
      ],
      [
        "p",
        "ite"
      ],
      [
        "r",
        "up"
      ],
      [
        "r",
        "ough"
      ],
      [
        "w",
        "he"
      ],
      [
        "me",
        "s"
      ],
      [
        "to",
        "wn"
      ],
      [
        "ha",
        "ving"
      ],
      [
        "ow",
        "ers"
      ],
      [
        "ce",
        "ll"
      ],
      [
        "al",
        "k"
      ],
      [
        "un",
        "k"
      ],
      [
        "su",
        "m"
      ],
      [
        "di",
        "es"
      ],
      [
        "spe",
        "ech"
      ],
      [
        "CA",
        "TES"
      ],
      [
        "vi",
        "ct"
      ],
      [
        "si",
        "gh"
      ],
      [
        "si",
        "ble"
      ],
      [
        "Be",
        "cause"
      ],
      [
        "ba",
        "se"
      ],
      [
        "vo",
        "ice"
      ],
      [
        "off",
        "er"
      ],
      [
        "Mar",
        "gar"
      ],
      [
        "pres",
        "ence"
      ],
      [
        "Un",
        "less"
      ],
      [
        "dre",
        "ad"
      ],
      [
        "bri",
        "de"
      ],
      [
        "bri",
        "ef"
      ],
      [
        "spo",
        "ke"
      ],
      [
        "consu",
        "l"
      ],
      [
        "Spe",
        "ak"
      ],
      [
        "CATES",
        "BY"
      ],
      [
        "Margar",
        "et"
      ],
      [
        "B",
        "ap"
      ],
      [
        "K",
        "e"
      ],
      [
        "L",
        "ond"
      ],
      [
        "S",
        "aint"
      ],
      [
        "c",
        "ol"
      ],
      [
        "d",
        "ark"
      ],
      [
        "f",
        "ill"
      ],
      [
        "h",
        "ur"
      ],
      [
        "r",
        "um"
      ],
      [
        "u",
        "b"
      ],
      [
        "v",
        "ow"
      ],
      [
        "w",
        "ars"
      ],
      [
        "ar",
        "l"
      ],
      [
        "ar",
        "is"
      ],
      [
        "on",
        "a"
      ],
      [
        "ll",
        "o"
      ],
      [
        "for",
        "ward"
      ],
      [
        "li",
        "p"
      ],
      [
        "The",
        "ir"
      ],
      [
        "vi",
        "le"
      ],
      [
        "ac",
        "tion"
      ],
      [
        "Who",
        "m"
      ],
      [
        "head",
        "s"
      ],
      [
        "sc",
        "ar"
      ],
      [
        "deed",
        "s"
      ],
      [
        "might",
        "y"
      ],
      [
        "GRE",
        "Y"
      ],
      [
        "den",
        "y"
      ],
      [
        "nat",
        "ur"
      ],
      [
        "cha",
        "mber"
      ],
      [
        "thr",
        "one"
      ],
      [
        "seem",
        "s"
      ],
      [
        "clo",
        "se"
      ],
      [
        "Bo",
        "th"
      ],
      [
        "prom",
        "ise"
      ],
      [
        "vis",
        "it"
      ],
      [
        "Bap",
        "tis"
      ],
      [
        "Lond",
        "on"
      ],
      [
        "B",
        "IAN"
      ],
      [
        "E",
        "re"
      ],
      [
        "G",
        "e"
      ],
      [
        "I",
        "sa"
      ],
      [
        "L",
        "est"
      ],
      [
        "M",
        "er"
      ],
      [
        "M",
        "is"
      ],
      [
        "P",
        "aris"
      ],
      [
        "R",
        "IV"
      ],
      [
        "T",
        "r"
      ],
      [
        "b",
        "ury"
      ],
      [
        "e",
        "th"
      ],
      [
        "g",
        "ing"
      ],
      [
        "h",
        "ar"
      ],
      [
        "i",
        "ma"
      ],
      [
        "m",
        "b"
      ],
      [
        "s",
        "wi"
      ],
      [
        "s",
        "al"
      ],
      [
        "s",
        "oft"
      ],
      [
        "an",
        "cient"
      ],
      [
        "st",
        "ain"
      ],
      [
        "re",
        "g"
      ],
      [
        "ch",
        "ang"
      ],
      [
        "ur",
        "ch"
      ],
      [
        "so",
        "l"
      ],
      [
        "ma",
        "st"
      ],
      [
        "id",
        "ed"
      ],
      [
        "ver",
        "n"
      ],
      [
        "su",
        "dden"
      ],
      [
        "mo",
        "on"
      ],
      [
        "ion",
        "s"
      ],
      [
        "was",
        "h"
      ],
      [
        "wor",
        "ship"
      ],
      [
        "um",
        "pet"
      ],
      [
        "um",
        "ph"
      ],
      [
        "vi",
        "ol"
      ],
      [
        "ment",
        "s"
      ],
      [
        "pray",
        "ers"
      ],
      [
        "res",
        "pect"
      ],
      [
        "BA",
        "L"
      ],
      [
        "cl",
        "ou"
      ],
      [
        "tre",
        "m"
      ],
      [
        "prince",
        "ly"
      ],
      [
        "BR",
        "A"
      ],
      [
        "full",
        "y"
      ],
      [
        "bu",
        "y"
      ],
      [
        "bit",
        "ter"
      ],
      [
        "Baptis",
        "ta"
      ],
      [
        "BIAN",
        "CA"
      ],
      [
        "Ge",
        "orge"
      ],
      [
        "RIV",
        "ERS"
      ],
      [
        "B",
        "OW"
      ],
      [
        "G",
        "AU"
      ],
      [
        "P",
        "a"
      ],
      [
        "T",
        "ho"
      ],
      [
        "a",
        "ck"
      ],
      [
        "c",
        "oward"
      ],
      [
        "e",
        "w"
      ],
      [
        "e",
        "at"
      ],
      [
        "e",
        "as"
      ],
      [
        "g",
        "all"
      ],
      [
        "i",
        "an"
      ],
      [
        "u",
        "ct"
      ],
      [
        "se",
        "at"
      ],
      [
        "re",
        "ver"
      ],
      [
        "hi",
        "de"
      ],
      [
        "fa",
        "vour"
      ],
      [
        "one",
        "y"
      ],
      [
        "ti",
        "l"
      ],
      [
        "pr",
        "in"
      ],
      [
        "EL",
        "BOW"
      ],
      [
        "ure",
        "d"
      ],
      [
        "ple",
        "as"
      ],
      [
        "coun",
        "t"
      ],
      [
        "ort",
        "en"
      ],
      [
        "sc",
        "orn"
      ],
      [
        "Nor",
        "th"
      ],
      [
        "tri",
        "umph"
      ],
      [
        "law",
        "ful"
      ],
      [
        "present",
        "ly"
      ],
      [
        "wit",
        "ness"
      ],
      [
        "St",
        "and"
      ],
      [
        "va",
        "liant"
      ],
      [
        "sla",
        "ve"
      ],
      [
        "anta",
        "ge"
      ],
      [
        "lam",
        "ent"
      ],
      [
        "fet",
        "ch"
      ],
      [
        "cro",
        "ss"
      ],
      [
        "mus",
        "ic"
      ],
      [
        "suc",
        "cess"
      ],
      [
        "fles",
        "h"
      ],
      [
        "GAU",
        "NT"
      ],
      [
        "G",
        "UE"
      ],
      [
        "H",
        "old"
      ],
      [
        "H",
        "ark"
      ],
      [
        "H",
        "orten"
      ],
      [
        "O",
        "x"
      ],
      [
        "T",
        "Y"
      ],
      [
        "a",
        "ven"
      ],
      [
        "b",
        "oo"
      ],
      [
        "e",
        "ase"
      ],
      [
        "f",
        "ond"
      ],
      [
        "i",
        "le"
      ],
      [
        "i",
        "fe"
      ],
      [
        "i",
        "ck"
      ],
      [
        "k",
        "ins"
      ],
      [
        "n",
        "ay"
      ],
      [
        "o",
        "cc"
      ],
      [
        "p",
        "ort"
      ],
      [
        "p",
        "atch"
      ],
      [
        "s",
        "per"
      ],
      [
        "st",
        "ant"
      ],
      [
        "le",
        "ast"
      ],
      [
        "al",
        "most"
      ],
      [
        "will",
        "ing"
      ],
      [
        "ge",
        "st"
      ],
      [
        "mo",
        "ved"
      ],
      [
        "ap",
        "pro"
      ],
      [
        "si",
        "o"
      ],
      [
        "pri",
        "thee"
      ],
      [
        "tri",
        "bunes"
      ],
      [
        "TA",
        "GUE"
      ],
      [
        "qui",
        "et"
      ],
      [
        "faul",
        "ts"
      ],
      [
        "dem",
        "n"
      ],
      [
        "MON",
        "TAGUE"
      ],
      [
        "Horten",
        "sio"
      ],
      [
        "K",
        "ath"
      ],
      [
        "a",
        "id"
      ],
      [
        "b",
        "or"
      ],
      [
        "c",
        "en"
      ],
      [
        "d",
        "le"
      ],
      [
        "g",
        "ent"
      ],
      [
        "k",
        "ed"
      ],
      [
        "l",
        "ar"
      ],
      [
        "l",
        "ow"
      ],
      [
        "m",
        "id"
      ],
      [
        "m",
        "atch"
      ],
      [
        "t",
        "une"
      ],
      [
        "w",
        "arm"
      ],
      [
        "th",
        "ither"
      ],
      [
        "ar",
        "ina"
      ],
      [
        "st",
        "or"
      ],
      [
        "he",
        "mi"
      ],
      [
        "be",
        "ast"
      ],
      [
        "le",
        "y"
      ],
      [
        "ch",
        "er"
      ],
      [
        "de",
        "part"
      ],
      [
        "oo",
        "th"
      ],
      [
        "ma",
        "li"
      ],
      [
        "pe",
        "y"
      ],
      [
        "fe",
        "it"
      ],
      [
        "ti",
        "c"
      ],
      [
        "go",
        "d"
      ],
      [
        "king",
        "dom"
      ],
      [
        "ak",
        "ed"
      ],
      [
        "di",
        "ed"
      ],
      [
        "ci",
        "ence"
      ],
      [
        "fi",
        "e"
      ],
      [
        "fi",
        "ed"
      ],
      [
        "ba",
        "wd"
      ],
      [
        "Do",
        "th"
      ],
      [
        "bra",
        "ce"
      ],
      [
        "Bo",
        "hemi"
      ],
      [
        "St",
        "ay"
      ],
      [
        "sla",
        "ughter"
      ],
      [
        "subject",
        "s"
      ],
      [
        "sm",
        "all"
      ],
      [
        "def",
        "end"
      ],
      [
        "execut",
        "ion"
      ],
      [
        "umber",
        "land"
      ],
      [
        "pret",
        "ty"
      ],
      [
        "Pom",
        "pey"
      ],
      [
        "Ye",
        "a"
      ],
      [
        "Pe",
        "ace"
      ],
      [
        "North",
        "umberland"
      ],
      [
        "Ox",
        "ford"
      ],
      [
        "Kath",
        "arina"
      ],
      [
        "D",
        "I"
      ],
      [
        "E",
        "x"
      ],
      [
        "G",
        "IL"
      ],
      [
        "I",
        "EL"
      ],
      [
        "R",
        "GIL"
      ],
      [
        "S",
        "we"
      ],
      [
        "a",
        "while"
      ],
      [
        "s",
        "land"
      ],
      [
        "v",
        "ol"
      ],
      [
        "y",
        "ear"
      ],
      [
        "in",
        "es"
      ],
      [
        "in",
        "no"
      ],
      [
        "le",
[...]
